{"version":"1.0","truncation":null,"padding":null,"added_tokens":[{"id":0,"special":true,"content":"[UNK]","single_word":false,"lstrip":false,"rstrip":false,"normalized":false},{"id":1,"special":true,"content":"[CLS]","single_word":false,"lstrip":false,"rstrip":false,"normalized":false},{"id":2,"special":true,"content":"[SEP]","single_word":false,"lstrip":false,"rstrip":false,"normalized":false},{"id":3,"special":true,"content":"[PAD]","single_word":false,"lstrip":false,"rstrip":false,"normalized":false},{"id":4,"special":true,"content":"[MASK]","single_word":false,"lstrip":false,"rstrip":false,"normalized":false}],"normalizer":{"type":"Sequence","normalizers":[{"type":"NFD"},{"type":"Lowercase"},{"type":"StripAccents"}]},"pre_tokenizer":{"type":"Whitespace"},"post_processor":{"type":"TemplateProcessing","single":[{"SpecialToken":{"id":"[CLS]","type_id":0}},{"Sequence":{"id":"A","type_id":0}},{"SpecialToken":{"id":"[SEP]","type_id":0}}],"pair":[{"SpecialToken":{"id":"[CLS]","type_id":0}},{"Sequence":{"id":"A","type_id":0}},{"SpecialToken":{"id":"[SEP]","type_id":0}},{"Sequence":{"id":"B","type_id":1}},{"SpecialToken":{"id":"[SEP]","type_id":1}}],"special_tokens":{"[CLS]":{"id":"[CLS]","ids":[1],"tokens":["[CLS]"]},"[SEP]":{"id":"[SEP]","ids":[2],"tokens":["[SEP]"]}}},"decoder":null,"model":{"type":"WordPiece","unk_token":"[UNK]","continuing_subword_prefix":"##","max_input_chars_per_word":100,"vocab":{"[UNK]":0,"[CLS]":1,"[SEP]":2,"[PAD]":3,"[MASK]":4,"!":5,"'":6,",":7,".":8,"0":9,"1":10,"2":11,"3":12,"4":13,"5":14,"6":15,"7":16,"8":17,"9":18,":":19,";":20,"?":21,"_":22,"a":23,"b":24,"c":25,"d":26,"e":27,"f":28,"g":29,"h":30,"i":31,"j":32,"k":33,"l":34,"m":35,"n":36,"o":37,"p":38,"q":39,"r":40,"s":41,"t":42,"u":43,"v":44,"w":45,"x":46,"y":47,"z":48,"ß":49,"##m":50,"##a":51,"##z":52,"##o":53,"##n":54,"##s":55,"##u":56,"##r":57,"##l":58,"##t":59,"##g":60,"##i":61,"##e":62,"##c":63,"##h":64,"##d":65,"##y":66,"##x":67,"##6":68,"##0":69,"##w":70,"##p":71,"##k":72,"##j":73,"##v":74,"##9":75,"##4":76,"##b":77,"##f":78,"##q":79,"##8":80,"##2":81,"##3":82,"##7":83,"##5":84,"##1":85,"##_":86,"##ß":87,"##ou":88,"##in":89,"th":90,"##er":91,"##at":92,"you":93,"##ing":94,"##re":95,"to":96,"##ve":97,"do":98,"##or":99,"##ll":100,"##nd":101,"##es":102,"the":103,"my":104,"is":105,"##an":106,"ha":107,"##ot":108,"li":109,"am":110,"##ke":111,"##ea":112,"##on":113,"##oo":114,"wh":115,"##it":116,"##ow":117,"##st":118,"##me":119,"##ay":120,"that":121,"##ar":122,"have":123,"in":124,"it":125,"are":126,"like":127,"##ic":128,"and":129,"##en":130,"##et":131,"lo":132,"##ut":133,"##ed":134,"so":135,"not":136,"of":137,"##ch":138,"what":139,"##ld":140,"be":141,"for":142,"on":143,"love":144,"##ers":145,"how":146,"##ood":147,"your":148,"##gh":149,"an":150,"me":151,"we":152,"##is":153,"##as":154,"##le":155,"##id":156,"wor":157,"##ust":158,"##om":159,"##ly":160,"st":161,"##al":162,"##ere":163,"he":164,"fa":165,"##se":166,"work":167,"##ri":168,"but":169,"good":170,"##ith":171,"##ould":172,"##erson":173,"person":174,"just":175,"sh":176,"with":177,"rea":178,"##un":179,"##ra":180,"go":181,"persona":182,"##lly":183,"hi":184,"##ool":185,"##ver":186,"at":187,"##us":188,"##art":189,"##ght":190,"pl":191,"##ite":192,"##op":193,"ne":194,"##out":195,"##ear":196,"mo":197,"too":198,"ab":199,"ch":200,"al":201,"co":202,"can":203,"##ce":204,"##ur":205,"about":206,"no":207,"gre":208,"some":209,"##th":210,"##ill":211,"##ice":212,"##ob":213,"##ry":214,"##nt":215,"##ck":216,"##ir":217,"##ad":218,"any":219,"fav":220,"##nds":221,"oh":222,"ti":223,"##ee":224,"##ter":225,"##ant":226,"favor":227,"well":228,"##ook":229,"##ight":230,"fr":231,"##ake":232,"favorite":233,"get":234,"was":235,"yes":236,"##ct":237,"as":238,"great":239,"would":240,"part":241,"##est":242,"##ion":243,"##ner":244,"all":245,"cool":246,"doing":247,"##ome":248,"su":249,"sp":250,"##ies":251,"nice":252,"from":253,"play":254,"time":255,"##day":256,"##oy":257,"out":258,"##ish":259,"they":260,"en":261,"there":262,"##ind":263,"really":264,"fun":265,"##im":266,"sou":267,"partner":268,"##ge":269,"##all":270,"##ery":271,"##ate":272,"##ent":273,"##and":274,"##am":275,"##ink":276,"##ame":277,"dog":278,"lot":279,"##are":280,"will":281,"live":282,"##ine":283,"mus":284,"its":285,"##her":286,"##ak":287,"music":288,"today":289,"##llo":290,"up":291,"hello":292,"day":293,"read":294,"very":295,"one":296,"sounds":297,"##ess":298,"yea":299,"mu":300,"re":301,"##ough":302,"ever":303,"them":304,"##atch":305,"when":306,"kn":307,"want":308,"eat":309,"aw":310,"kid":311,"##one":312,"##ally":313,"##ving":314,"pre":315,"than":316,"##rie":317,"##joy":318,"enjoy":319,"##tt":320,"much":321,"now":322,"sch":323,"cl":324,"##if":325,"got":326,"##ol":327,"##pp":328,"yeah":329,"watch":330,"know":331,"or":332,"school":333,"going":334,"##ul":335,"pr":336,"##ort":337,"##ong":338,"been":339,"##ie":340,"kids":341,"where":342,"##each":343,"job":344,"com":345,"##lf":346,"##ig":347,"lol":348,"think":349,"##ain":350,"ex":351,"##au":352,"##thing":353,"ar":354,"kind":355,"##ab":356,"##ide":357,"tra":358,"##il":359,"wow":360,"she":361,"##ore":362,"##ack":363,"cat":364,"##ting":365,"car":366,"food":367,"se":368,"year":369,"bl":370,"make":371,"did":372,"br":373,"##so":374,"##wn":375,"de":376,"##ays":377,"##ist":378,"##ast":379,"ok":380,"frie":381,"te":382,"also":383,"##ue":384,"##ree":385,"##ud":386,"us":387,"##os":388,"thing":389,"##ily":390,"##ass":391,"fam":392,"##ning":393,"man":394,"see":395,"##ive":396,"more":397,"could":398,"##be":399,"pe":400,"##ci":401,"bet":402,"##ope":403,"this":404,"new":405,"##lor":406,"thank":407,"may":408,"try":409,"mar":410,"old":411,"##ian":412,"dogs":413,"every":414,"gu":415,"cook":416,"##vel":417,"##esome":418,"##fe":419,"though":420,"awesome":421,"home":422,"##lle":423,"##ha":424,"##obb":425,"here":426,"cou":427,"never":428,"if":429,"hobb":430,"only":431,"##self":432,"should":433,"##king":434,"hear":435,"##um":436,"tr":437,"colle":438,"teach":439,"family":440,"##res":441,"##ets":442,"tw":443,"##lp":444,"need":445,"right":446,"prett":447,"pretty":448,"sure":449,"help":450,"mom":451,"name":452,"bec":453,"peop":454,"list":455,"##ation":456,"sw":457,"inter":458,"maybe":459,"people":460,"##ild":461,"##pe":462,"##ways":463,"##ard":464,"gra":465,"listen":466,"hey":467,"##ff":468,"book":469,"does":470,"always":471,"had":472,"act":473,"##og":474,"hope":475,"##ried":476,"take":477,"mov":478,"##eg":479,"##nts":480,"##ag":481,"##ac":482,"most":483,"dri":484,"##other":485,"##ose":486,"travel":487,"color":488,"##ball":489,"sor":490,"living":491,"sorry":492,"##nder":493,"con":494,"##oth":495,"har":496,"##ause":497,"best":498,"stud":499,"long":500,"wish":501,"##uck":502,"##iz":503,"##ually":504,"anim":505,"dr":506,"why":507,"sing":508,"haha":509,"veg":510,"wee":511,"bus":512,"##ous":513,"own":514,"off":515,"animal":516,"interest":517,"hobbies":518,"life":519,"##ity":520,"run":521,"college":522,"comp":523,"ag":524,"two":525,"int":526,"somet":527,"af":528,"##aking":529,"look":530,"wr":531,"##eal":532,"##akes":533,"##eel":534,"eve":535,"##ames":536,"because":537,"##ang":538,"pets":539,"years":540,"##ap":541,"who":542,"friends":543,"ro":544,"##ather":545,"pare":546,"##ance":547,"mine":548,"hard":549,"gr":550,"##ren":551,"working":552,"##oc":553,"##fer":554,"spe":555,"##ne":556,"##mm":557,"back":558,"fe":559,"being":560,"tell":561,"##mp":562,"then":563,"fish":564,"##les":565,"##eep":566,"hou":567,"che":568,"parents":569,"big":570,"things":571,"##alk":572,"##imes":573,"sometimes":574,"her":575,"show":576,"interesting":577,"child":578,"oth":579,"feel":580,"into":581,"rel":582,"cats":583,"##ment":584,"still":585,"count":586,"##ful":587,"sm":588,"by":589,"hair":590,"anything":591,"watching":592,"bu":593,"far":594,"many":595,"bad":596,"married":597,"dad":598,"must":599,"sport":600,"after":601,"has":602,"drive":603,"##ound":604,"##oot":605,"keep":606,"##ure":607,"shop":608,"ad":609,"##cc":610,"gir":611,"##ia":612,"##ick":613,"reading":614,"##ress":615,"thanks":616,"##ile":617,"##ead":618,"##ors":619,"litt":620,"animals":621,"other":622,"little":623,"way":624,"night":625,"di":626,"sa":627,"art":628,"##az":629,"un":630,"games":631,"ton":632,"##ince":633,"##oney":634,"over":635,"##izz":636,"happ":637,"pizz":638,"okay":639,"sc":640,"class":641,"band":642,"movies":643,"pizza":644,"##red":645,"##ep":646,"qu":647,"care":648,"##ich":649,"##iting":650,"since":651,"hate":652,"country":653,"money":654,"myself":655,"playing":656,"##ib":657,"better":658,"bas":659,"##per":660,"used":661,"hus":662,"start":663,"##ace":664,"sports":665,"red":666,"friend":667,"getting":668,"##ary":669,"yourself":670,"books":671,"come":672,"high":673,"pain":674,"dra":675,"plan":676,"cann":677,"actually":678,"prob":679,"vide":680,"sk":681,"fin":682,"boy":683,"tonight":684,"stay":685,"##ons":686,"el":687,"cannot":688,"something":689,"fl":690,"##ling":691,"husb":692,"##ream":693,"drink":694,"grad":695,"##ife":696,"blue":697,"those":698,"foot":699,"husband":700,"whats":701,"guess":702,"say":703,"weeke":704,"par":705,"##ese":706,"study":707,"lear":708,"##age":709,"bre":710,"##orn":711,"mostly":712,"pro":713,"##ert":714,"find":715,"busy":716,"ph":717,"rock":718,"##anc":719,"wife":720,"##ng":721,"##ater":722,"wo":723,"swim":724,"lea":725,"him":726,"spend":727,"es":728,"##ft":729,"children":730,"while":731,"around":732,"move":733,"##ping":734,"beach":735,"else":736,"fine":737,"even":738,"trying":739,"under":740,"meat":741,"young":742,"cra":743,"##our":744,"##ax":745,"bo":746,"##ny":747,"##ket":748,"##ach":749,"##ise":750,"swe":751,"makes":752,"free":753,"city":754,"##ms":755,"tv":756,"##ip":757,"wa":758,"girl":759,"##ub":760,"##aught":761,"##te":762,"##ph":763,"same":764,"ret":765,"use":766,"game":767,"vis":768,"teacher":769,"##ute":770,"##ated":771,"house":772,"walk":773,"##eak":774,"cur":775,"eating":776,"were":777,"##cially":778,"##fore":779,"football":780,"before":781,"##ple":782,"video":783,"pass":784,"sist":785,"rec":786,"prefer":787,"##alking":788,"tea":789,"true":790,"sur":791,"##ealth":792,"meet":793,"##ten":794,"mor":795,"bea":796,"##ought":797,"fir":798,"##pecially":799,"##ix":800,"especially":801,"##ked":802,"farm":803,"done":804,"##ath":805,"##own":806,"ty":807,"looking":808,"cooking":809,"last":810,"our":811,"dif":812,"##ost":813,"vegan":814,"##iv":815,"wonder":816,"le":817,"morning":818,"soon":819,"##ble":820,"##ably":821,"world":822,"gl":823,"finish":824,"relax":825,"la":826,"app":827,"luck":828,"##ical":829,"win":830,"##ork":831,"##get":832,"listening":833,"##iss":834,"once":835,"##uff":836,"probably":837,"##cial":838,"movie":839,"##ber":840,"##riend":841,"week":842,"underst":843,"mother":844,"imp":845,"bi":846,"health":847,"sn":848,"place":849,"mad":850,"gard":851,"both":852,"learn":853,"garden":854,"amaz":855,"down":856,"##ious":857,"beaut":858,"dance":859,"##ans":860,"visit":861,"##ict":862,"met":863,"ll":864,"grand":865,"##iness":866,"per":867,"##ond":868,"went":869,"yet":870,"three":871,"cars":872,"understand":873,"mon":874,"ma":875,"eng":876,"sound":877,"rest":878,"store":879,"pur":880,"sad":881,"sle":882,"cal":883,"##hing":884,"hun":885,"coff":886,"##side":887,"call":888,"coffee":889,"real":890,"##ount":891,"which":892,"##eas":893,"##up":894,"sweet":895,"draw":896,"hot":897,"##ire":898,"might":899,"happy":900,"dis":901,"exc":902,"write":903,"##xt":904,"his":905,"few":906,"des":907,"##ence":908,"##ations":909,"first":910,"green":911,"##able":912,"stuff":913,"##el":914,"##ics":915,"business":916,"thr":917,"##llow":918,"##ange":919,"cr":920,"inst":921,"bel":922,"##erg":923,"##ime":924,"jo":925,"brother":926,"sleep":927,"##ogra":928,"amazing":929,"##gg":930,"black":931,"##ird":932,"taking":933,"hor":934,"heard":935,"student":936,"##rent":937,"sal":938,"weekend":939,"current":940,"bar":941,"wear":942,"##na":943,"##mes":944,"lots":945,"usually":946,"small":947,"##ican":948,"##ctor":949,"their":950,"chic":951,"##dy":952,"fast":953,"super":954,"next":955,"away":956,"fan":957,"give":958,"truck":959,"ride":960,"loc":961,"##mmer":962,"everything":963,"nur":964,"funny":965,"po":966,"shopping":967,"hu":968,"tall":969,"studying":970,"bit":971,"##man":972,"late":973,"def":974,"veget":975,"acc":976,"often":977,"##pen":978,"##iful":979,"differ":980,"beautiful":981,"##arian":982,"comput":983,"##oss":984,"having":985,"##ither":986,"days":987,"##ma":988,"hang":989,"med":990,"##zy":991,"chat":992,"times":993,"talk":994,"making":995,"nothing":996,"##ah":997,"##lish":998,"##ract":999,"id":1000,"##kes":1001,"wait":1002,"##ating":1003,"fishing":1004,"buy":1005,"cold":1006,"##ash":1007,"miss":1008,"ser":1009,"break":1010,"currently":1011,"guit":1012,"##att":1013,"guitar":1014,"##ming":1015,"near":1016,"hobby":1017,"##erc":1018,"enough":1019,"different":1020,"paint":1021,"sib":1022,"##ieve":1023,"##br":1024,"summer":1025,"str":1026,"hour":1027,"month":1028,"single":1029,"##ys":1030,"running":1031,"outside":1032,"sell":1033,"grow":1034,"ind":1035,"compan":1036,"son":1037,"hiking":1038,"mean":1039,"##line":1040,"ready":1041,"##my":1042,"##ps":1043,"law":1044,"evening":1045,"sibling":1046,"##pt":1047,"ear":1048,"finished":1049,"alone":1050,"din":1051,"allerg":1052,"short":1053,"daught":1054,"pet":1055,"defin":1056,"collect":1057,"crazy":1058,"seen":1059,"10":1060,"sec":1061,"prof":1062,"dream":1063,"sister":1064,"named":1065,"##ord":1066,"mil":1067,"ra":1068,"danc":1069,"##ions":1070,"eas":1071,"##aur":1072,"made":1073,"cant":1074,"toget":1075,"siblings":1076,"wonderful":1077,"##others":1078,"basket":1079,"##oes":1080,"comm":1081,"together":1082,"##ently":1083,"started":1084,"##ull":1085,"ago":1086,"park":1087,"definite":1088,"definitely":1089,"##yc":1090,"gradu":1091,"healthy":1092,"alot":1093,"let":1094,"restaur":1095,"restaurant":1096,"mind":1097,"##ken":1098,"##land":1099,"##ings":1100,"profess":1101,"weather":1102,"sit":1103,"company":1104,"type":1105,"purple":1106,"##ired":1107,"close":1108,"helps":1109,"##act":1110,"either":1111,"conc":1112,"online":1113,"believe":1114,"ten":1115,"basketball":1116,"##pl":1117,"ey":1118,"happen":1119,"train":1120,"ice":1121,"ah":1122,"local":1123,"yog":1124,"##ocol":1125,"socc":1126,"cute":1127,"chocol":1128,"##ature":1129,"chocolate":1130,"soccer":1131,"##wh":1132,"##do":1133,"##urn":1134,"father":1135,"fall":1136,"base":1137,"##ats":1138,"cour":1139,"exerc":1140,"##ail":1141,"cheese":1142,"##io":1143,"yoga":1144,"vol":1145,"##oring":1146,"cloth":1147,"##ries":1148,"##ones":1149,"brothers":1150,"relaxing":1151,"##bs":1152,"head":1153,"supp":1154,"surf":1155,"thinking":1156,"put":1157,"artist":1158,"sci":1159,"works":1160,"agree":1161,"##ory":1162,"bab":1163,"gen":1164,"res":1165,"cre":1166,"ball":1167,"team":1168,"wanted":1169,"quite":1170,"mex":1171,"spare":1172,"yours":1173,"profession":1174,"##int":1175,"tom":1176,"past":1177,"tri":1178,"deg":1179,"recently":1180,"cam":1181,"talking":1182,"##ures":1183,"im":1184,"##ult":1185,"bake":1186,"thought":1187,"##ates":1188,"##ier":1189,"##ign":1190,"flor":1191,"##alian":1192,"##fu":1193,"##key":1194,"italian":1195,"speak":1196,"girlf":1197,"least":1198,"computer":1199,"##ru":1200,"cle":1201,"concert":1202,"##hip":1203,"hike":1204,"loves":1205,"##ady":1206,"nurse":1207,"##bo":1208,"tired":1209,"ter":1210,"##ro":1211,"fren":1212,"florid":1213,"glad":1214,"rid":1215,"outdo":1216,"sun":1217,"alm":1218,"someone":1219,"florida":1220,"water":1221,"##where":1222,"winter":1223,"volun":1224,"york":1225,"del":1226,"##ew":1227,"older":1228,"exercise":1229,"##olog":1230,"char":1231,"dinner":1232,"volunte":1233,"moved":1234,"pay":1235,"swimming":1236,"shows":1237,"pract":1238,"##du":1239,"phot":1240,"##ank":1241,"almost":1242,"french":1243,"##een":1244,"##ect":1245,"degree":1246,"##rible":1247,"brown":1248,"left":1249,"idea":1250,"pop":1251,"rather":1252,"##ward":1253,"volunteer":1254,"pot":1255,"bike":1256,"writing":1257,"gy":1258,"passion":1259,"again":1260,"baseball":1261,"hur":1262,"##oke":1263,"##qu":1264,"##co":1265,"office":1266,"aut":1267,"song":1268,"##00":1269,"rap":1270,"walking":1271,"hors":1272,"horses":1273,"driving":1274,"##air":1275,"boys":1276,"boring":1277,"cream":1278,"chicken":1279,"hours":1280,"weird":1281,"full":1282,"exciting":1283,"gym":1284,"nor":1285,"pink":1286,"##let":1287,"##iforn":1288,"californ":1289,"pian":1290,"imag":1291,"da":1292,"##right":1293,"##cks":1294,"california":1295,"seas":1296,"weekends":1297,"##ush":1298,"four":1299,"tre":1300,"##unch":1301,"girlfriend":1302,"star":1303,"rain":1304,"dec":1305,"##ited":1306,"##fect":1307,"##ins":1308,"boyf":1309,"lang":1310,"langu":1311,"outdoors":1312,"party":1313,"roo":1314,"ca":1315,"tried":1316,"course":1317,"canad":1318,"clean":1319,"##ica":1320,"another":1321,"import":1322,"ap":1323,"piano":1324,"##uring":1325,"pol":1326,"boyfriend":1327,"tac":1328,"##fully":1329,"ins":1330,"cake":1331,"stress":1332,"maj":1333,"##ts":1334,"vi":1335,"don":1336,"yum":1337,"##ding":1338,"##uit":1339,"##ds":1340,"war":1341,"retired":1342,"dancing":1343,"##oman":1344,"social":1345,"english":1346,"pick":1347,"diet":1348,"important":1349,"daughter":1350,"sl":1351,"age":1352,"cont":1353,"amer":1354,"guy":1355,"tot":1356,"cons":1357,"bra":1358,"asking":1359,"tenn":1360,"jap":1361,"##ograph":1362,"sub":1363,"japan":1364,"##way":1365,"through":1366,"clothes":1367,"novel":1368,"lost":1369,"##fort":1370,"traveling":1371,"##ness":1372,"bed":1373,"lucky":1374,"woman":1375,"##ables":1376,"hand":1377,"##ger":1378,"##rist":1379,"grade":1380,"nope":1381,"vegetarian":1382,"##cept":1383,"##no":1384,"libr":1385,"##aces":1386,"##ums":1387,"ge":1388,"state":1389,"steak":1390,"vet":1391,"hop":1392,"##vy":1393,"##unk":1394,"played":1395,"##ty":1396,"fore":1397,"jobs":1398,"kinds":1399,"girls":1400,"build":1401,"during":1402,"##ition":1403,"proble":1404,"##ald":1405,"everyone":1406,"##ible":1407,"nature":1408,"born":1409,"mount":1410,"stop":1411,"imagine":1412,"season":1413,"##mber":1414,"##row":1415,"##als":1416,"leave":1417,"huge":1418,"##fl":1419,"plans":1420,"ya":1421,"instru":1422,"##azz":1423,"##ockey":1424,"cong":1425,"doctor":1426,"gets":1427,"##ta":1428,"cand":1429,"jazz":1430,"pu":1431,"scare":1432,"beer":1433,"club":1434,"allergic":1435,"sisters":1436,"hows":1437,"##ron":1438,"att":1439,"deal":1440,"hockey":1441,"ones":1442,"such":1443,"lake":1444,"open":1445,"##ject":1446,"painting":1447,"five":1448,"##oice":1449,"account":1450,"christ":1451,"##tend":1452,"tex":1453,"early":1454,"become":1455,"##ced":1456,"canada":1457,"main":1458,"easy":1459,"##lling":1460,"stand":1461,"congr":1462,"eyes":1463,"min":1464,"enjoying":1465,"came":1466,"##ages":1467,"bring":1468,"tast":1469,"apart":1470,"keeps":1471,"hon":1472,"grew":1473,"fant":1474,"smart":1475,"bur":1476,"##ital":1477,"god":1478,"##ever":1479,"##ular":1480,"##ills":1481,"tech":1482,"classes":1483,"vac":1484,"less":1485,"##sing":1486,"##ven":1487,"tennis":1488,"##vor":1489,"##ense":1490,"worked":1491,"mid":1492,"tatt":1493,"##ney":1494,"mag":1495,"turn":1496,"ac":1497,"major":1498,"pub":1499,"##tu":1500,"mountain":1501,"mc":1502,"##ted":1503,"tattoo":1504,"alright":1505,"hanging":1506,"##orrow":1507,"##ark":1508,"20":1509,"fit":1510,"bought":1511,"scary":1512,"##less":1513,"teaching":1514,"each":1515,"egg":1516,"ext":1517,"bir":1518,"died":1519,"pict":1520,"hos":1521,"hosp":1522,"##ret":1523,"perfect":1524,"along":1525,"riding":1526,"months":1527,"hum":1528,"drag":1529,"birth":1530,"muse":1531,"metal":1532,"someday":1533,"sick":1534,"career":1535,"##ease":1536,"names":1537,"instead":1538,"##iet":1539,"said":1540,"seems":1541,"chur":1542,"church":1543,"ele":1544,"took":1545,"##dle":1546,"anyone":1547,"##ative":1548,"horse":1549,"##ically":1550,"##ower":1551,"sout":1552,"##ology":1553,"tough":1554,"groc":1555,"##mer":1556,"##pes":1557,"end":1558,"hit":1559,"##ves":1560,"chatting":1561,"practice":1562,"feeling":1563,"baking":1564,"##unate":1565,"##ump":1566,"stor":1567,"bear":1568,"oce":1569,"feet":1570,"six":1571,"check":1572,"gotta":1573,"hospital":1574,"ye":1575,"able":1576,"rem":1577,"places":1578,"graduated":1579,"##ti":1580,"ask":1581,"foods":1582,"wed":1583,"hopefully":1584,"##ident":1585,"neat":1586,"science":1587,"blond":1588,"lives":1589,"learned":1590,"special":1591,"tomorrow":1592,"##vers":1593,"walks":1594,"town":1595,"vegg":1596,"##ude":1597,"texas":1598,"intern":1599,"ho":1600,"these":1601,"everyday":1602,"fruit":1603,"relations":1604,"kit":1605,"singing":1606,"abs":1607,"##igh":1608,"##onna":1609,"learning":1610,"cor":1611,"dress":1612,"baby":1613,"ocean":1614,"wrong":1615,"##sh":1616,"taught":1617,"##ww":1618,"##ane":1619,"ce":1620,"sucks":1621,"shel":1622,"lovely":1623,"seem":1624,"takes":1625,"##sive":1626,"cas":1627,"terrible":1628,"fil":1629,"news":1630,"inc":1631,"##by":1632,"sea":1633,"hunting":1634,"shoes":1635,"##ored":1636,"ski":1637,"##tube":1638,"sim":1639,"fly":1640,"##olin":1641,"youtube":1642,"apartment":1643,"##loy":1644,"snow":1645,"##resh":1646,"##olute":1647,"absolute":1648,"please":1649,"vacation":1650,"mexican":1651,"##ield":1652,"meal":1653,"##mploy":1654,"later":1655,"mod":1656,"org":1657,"fresh":1658,"orange":1659,"totally":1660,"impress":1661,"fo":1662,"catch":1663,"air":1664,"change":1665,"relationship":1666,"face":1667,"##ape":1668,"dy":1669,"##ces":1670,"hmm":1671,"weight":1672,"##more":1673,"cop":1674,"trip":1675,"huh":1676,"##vent":1677,"likes":1678,"compet":1679,"##ivers":1680,"cut":1681,"anymore":1682,"lar":1683,"army":1684,"grocery":1685,"problem":1686,"pool":1687,"lived":1688,"##ize":1689,"adop":1690,"##ments":1691,"##ago":1692,"famous":1693,"player":1694,"lets":1695,"##erman":1696,"ner":1697,"loved":1698,"##gry":1699,"##yle":1700,"pri":1701,"##ike":1702,"afterno":1703,"chicago":1704,"##ues":1705,"gam":1706,"progra":1707,"sush":1708,"##icious":1709,"##ants":1710,"fight":1711,"math":1712,"coming":1713,"novels":1714,"sushi":1715,"dead":1716,"candy":1717,"tacos":1718,"##work":1719,"##lls":1720,"unfort":1721,"unfortunate":1722,"rais":1723,"design":1724,"set":1725,"divor":1726,"pictures":1727,"afternoon":1728,"concerts":1729,"lately":1730,"lau":1731,"pit":1732,"##ready":1733,"already":1734,"delicious":1735,"vegetables":1736,"photograph":1737,"##don":1738,"languages":1739,"mot":1740,"##ities":1741,"absolutely":1742,"##ico":1743,"writ":1744,"beat":1745,"##ides":1746,"##oud":1747,"secret":1748,"sme":1749,"fix":1750,"hist":1751,"won":1752,"classical":1753,"honest":1754,"save":1755,"mcdon":1756,"mcdonald":1757,"unt":1758,"bes":1759,"##ift":1760,"##vice":1761,"lawy":1762,"drinking":1763,"yep":1764,"gone":1765,"sometime":1766,"yellow":1767,"sund":1768,"hoping":1769,"side":1770,"aff":1771,"cart":1772,"##anic":1773,"saw":1774,"area":1775,"expen":1776,"whole":1777,"mainly":1778,"retire":1779,"sew":1780,"follow":1781,"##dd":1782,"##ider":1783,"##rot":1784,"fre":1785,"##son":1786,"sitting":1787,"reme":1788,"add":1789,"passed":1790,"sales":1791,"##ient":1792,"##amp":1793,"ent":1794,"professional":1795,"##ertain":1796,"called":1797,"except":1798,"birthday":1799,"##fic":1800,"south":1801,"younger":1802,"bank":1803,"kinda":1804,"videos":1805,"##gers":1806,"eggs":1807,"ow":1808,"##ote":1809,"extra":1810,"blonde":1811,"##ction":1812,"boat":1813,"glass":1814,"until":1815,"drawing":1816,"bak":1817,"##ids":1818,"rom":1819,"##ks":1820,"hol":1821,"share":1822,"##vis":1823,"found":1824,"##lo":1825,"waiting":1826,"ny":1827,"##ror":1828,"neigh":1829,"neighb":1830,"remember":1831,"ke":1832,"guys":1833,"##iction":1834,"##mas":1835,"expensive":1836,"ed":1837,"stra":1838,"pasta":1839,"exact":1840,"pen":1841,"##ama":1842,"north":1843,"surfing":1844,"scared":1845,"cookies":1846,"chef":1847,"lab":1848,"phone":1849,"veggies":1850,"tal":1851,"anime":1852,"##gin":1853,"##ycle":1854,"engine":1855,"lunch":1856,"ann":1857,"bow":1858,"laugh":1859,"nah":1860,"pa":1861,"je":1862,"gonna":1863,"american":1864,"camping":1865,"bro":1866,"couple":1867,"##raid":1868,"afraid":1869,"pie":1870,"apple":1871,"top":1872,"rich":1873,"##atur":1874,"ford":1875,"fave":1876,"without":1877,"history":1878,"##though":1879,"excited":1880,"##que":1881,"##rill":1882,"broke":1883,"##duc":1884,"aust":1885,"##ock":1886,"although":1887,"net":1888,"stories":1889,"moment":1890,"cow":1891,"rad":1892,"kill":1893,"accountant":1894,"nail":1895,"shelter":1896,"##board":1897,"sort":1898,"##anger":1899,"ath":1900,"##lete":1901,"fig":1902,"##pper":1903,"self":1904,"em":1905,"##itary":1906,"german":1907,"##omen":1908,"rob":1909,"classic":1910,"##bur":1911,"second":1912,"##anna":1913,"##ade":1914,"hunt":1915,"30":1916,"smo":1917,"coast":1918,"christmas":1919,"workout":1920,"besides":1921,"inv":1922,"large":1923,"wild":1924,"polit":1925,"##ster":1926,"univers":1927,"fol":1928,"military":1929,"women":1930,"##its":1931,"heart":1932,"kar":1933,"lady":1934,"salad":1935,"##cy":1936,"bud":1937,"##fast":1938,"sense":1939,"##der":1940,"spending":1941,"exper":1942,"middle":1943,"says":1944,"##ual":1945,"##ton":1946,"##ween":1947,"ballet":1948,"pap":1949,"sy":1950,"##atoes":1951,"attend":1952,"wedding":1953,"bills":1954,"dist":1955,"##owers":1956,"fries":1957,"##led":1958,"educ":1959,"##ave":1960,"breakfast":1961,"auth":1962,"##mployed":1963,"violin":1964,"##book":1965,"impressive":1966,"daughters":1967,"hallow":1968,"marke":1969,"daily":1970,"date":1971,"rep":1972,"chin":1973,"clim":1974,"mexico":1975,"##ped":1976,"##ied":1977,"halloween":1978,"mich":1979,"van":1980,"road":1981,"fat":1982,"between":1983,"cause":1984,"dragons":1985,"##gu":1986,"helping":1987,"##aly":1988,"ass":1989,"cup":1990,"##ugg":1991,"##iver":1992,"##back":1993,"##sy":1994,"chance":1995,"thrones":1996,"room":1997,"fair":1998,"desig":1999,"tho":2000,"publish":2001,"engineer":2002,"told":2003,"diffic":2004,"difficult":2005,"bird":2006,"##ston":2007,"bob":2008,"##ands":2009,"goes":2010,"##de":2011,"factor":2012,"leg":2013,"comic":2014,"marketing":2015,"singer":2016,"grou":2017,"unfortunately":2018,"ran":2019,"field":2020,"happened":2021,"fash":2022,"afford":2023,"activ":2024,"##ines":2025,"glasses":2026,"lawyer":2027,"wanna":2028,"rough":2029,"wind":2030,"##hol":2031,"states":2032,"##ancy":2033,"holid":2034,"##enty":2035,"##igan":2036,"insp":2037,"av":2038,"##ior":2039,"pat":2040,"tend":2041,"fema":2042,"female":2043,"reci":2044,"tattoos":2045,"interested":2046,"accident":2047,"worth":2048,"bac":2049,"sever":2050,"##ites":2051,"fashion":2052,"race":2053,"##ices":2054,"iph":2055,"geor":2056,"##ky":2057,"hungry":2058,"tour":2059,"##orm":2060,"gener":2061,"computers":2062,"ham":2063,"die":2064,"several":2065,"##reet":2066,"talent":2067,"moving":2068,"michigan":2069,"nails":2070,"wine":2071,"raised":2072,"bacon":2073,"story":2074,"horror":2075,"climb":2076,"##cer":2077,"lif":2078,"photography":2079,"worry":2080,"planning":2081,"growing":2082,"shower":2083,"na":2084,"consider":2085,"zoo":2086,"plays":2087,"techn":2088,"writer":2089,"library":2090,"paris":2091,"graduate":2092,"fantas":2093,"allergies":2094,"reg":2095,"##essed":2096,"join":2097,"trucks":2098,"factory":2099,"liter":2100,"taste":2101,"##rican":2102,"##ouble":2103,"##ational":2104,"drop":2105,"mountains":2106,"##ens":2107,"12":2108,"librarian":2109,"magic":2110,"##ss":2111,"tele":2112,"model":2113,"##ino":2114,"makeup":2115,"dep":2116,"youngest":2117,"##ili":2118,"sky":2119,"box":2120,"poor":2121,"dish":2122,"##inc":2123,"const":2124,"stick":2125,"span":2126,"##earch":2127,"##pect":2128,"##flix":2129,"netflix":2130,"fut":2131,"##ring":2132,"trust":2133,"##ai":2134,"remind":2135,"colors":2136,"support":2137,"white":2138,"quit":2139,"comics":2140,"##umb":2141,"songs":2142,"iphone":2143,"future":2144,"smell":2145,"ate":2146,"hurrican":2147,"carto":2148,"##rimp":2149,"shrimp":2150,"exactly":2151,"fer":2152,"experi":2153,"www":2154,"comes":2155,"fiction":2156,"##astic":2157,"choice":2158,"##uss":2159,"anyway":2160,"commun":2161,"safe":2162,"pig":2163,"saving":2164,"theater":2165,"quiet":2166,"obs":2167,"common":2168,"##entist":2169,"##gy":2170,"market":2171,"eye":2172,"flowers":2173,"advent":2174,"veter":2175,"wood":2176,"tun":2177,"clown":2178,"nursing":2179,"yummy":2180,"congrats":2181,"##atul":2182,"produ":2183,"chan":2184,"meant":2185,"pupp":2186,"skate":2187,"cu":2188,"##haha":2189,"cakes":2190,"horrible":2191,"divorced":2192,"university":2193,"conf":2194,"disney":2195,"##lic":2196,"##etti":2197,"awful":2198,"congratul":2199,"sons":2200,"step":2201,"needs":2202,"norm":2203,"craft":2204,"gardening":2205,"spa":2206,"wants":2207,"poet":2208,"cleaning":2209,"blog":2210,"warm":2211,"shape":2212,"##ial":2213,"moms":2214,"seven":2215,"acting":2216,"##ls":2217,"eur":2218,"europe":2219,"voice":2220,"reason":2221,"##ghetti":2222,"spaghetti":2223,"grandp":2224,"congratulations":2225,"san":2226,"##asc":2227,"lone":2228,"street":2229,"anywhere":2230,"others":2231,"spanish":2232,"reward":2233,"language":2234,"men":2235,"pos":2236,"active":2237,"adopted":2238,"##ention":2239,"museums":2240,"dark":2241,"##gue":2242,"pea":2243,"sunday":2244,"joh":2245,"ori":2246,"si":2247,"iron":2248,"male":2249,"cali":2250,"foc":2251,"peace":2252,"##ooked":2253,"##tery":2254,"john":2255,"types":2256,"spent":2257,"actor":2258,"##attle":2259,"##vert":2260,"19":2261,"order":2262,"mac":2263,"alab":2264,"##och":2265,"liked":2266,"whatever":2267,"focus":2268,"king":2269,"miles":2270,"internet":2271,"adm":2272,"##acter":2273,"soft":2274,"feed":2275,"inde":2276,"18":2277,"mast":2278,"ros":2279,"strong":2280,"##chool":2281,"##gs":2282,"light":2283,"ener":2284,"pack":2285,"blood":2286,"alabama":2287,"author":2288,"pleas":2289,"lose":2290,"cost":2291,"usa":2292,"motor":2293,"everywhere":2294,"character":2295,"trans":2296,"chill":2297,"style":2298,"##iring":2299,"students":2300,"##uts":2301,"##umber":2302,"fantasy":2303,"bal":2304,"elect":2305,"apples":2306,"group":2307,"land":2308,"##ouse":2309,"medical":2310,"boot":2311,"##tle":2312,"trouble":2313,"##ota":2314,"ir":2315,"line":2316,"col":2317,"vo":2318,"mary":2319,"##ove":2320,"gun":2321,"##ires":2322,"looks":2323,"comed":2324,"##itive":2325,"occ":2326,"post":2327,"goal":2328,"##ager":2329,"goo":2330,"skin":2331,"personal":2332,"genre":2333,"suppose":2334,"allow":2335,"arm":2336,"twins":2337,"power":2338,"twin":2339,"##da":2340,"serious":2341,"##ars":2342,"##0s":2343,"##oph":2344,"##ache":2345,"police":2346,"stressful":2347,"##ator":2348,"hurt":2349,"mcdonalds":2350,"##ots":2351,"milk":2352,"##ctors":2353,"depe":2354,"cri":2355,"##iving":2356,"wheel":2357,"mech":2358,"wearing":2359,"collection":2360,"italy":2361,"firm":2362,"america":2363,"education":2364,"##ont":2365,"death":2366,"##ana":2367,"##airs":2368,"iss":2369,"##body":2370,"france":2371,"watched":2372,"##gle":2373,"favorites":2374,"relig":2375,"laz":2376,"harry":2377,"gold":2378,"training":2379,"mustang":2380,"partic":2381,"##oped":2382,"knew":2383,"cheer":2384,"port":2385,"cele":2386,"##ights":2387,"figure":2388,"wal":2389,"cancer":2390,"rewarding":2391,"##ising":2392,"doctors":2393,"dude":2394,"ju":2395,"quick":2396,"taco":2397,"poss":2398,"ur":2399,"body":2400,"fantastic":2401,"couch":2402,"jokes":2403,"lazy":2404,"fire":2405,"sand":2406,"plus":2407,"lonely":2408,"radio":2409,"pray":2410,"arch":2411,"boss":2412,"knit":2413,"forward":2414,"aww":2415,"dancer":2416,"jam":2417,"mess":2418,"##antic":2419,"strange":2420,"##com":2421,"##ari":2422,"driver":2423,"##ral":2424,"##food":2425,"liz":2426,"somewhere":2427,"seafood":2428,"mill":2429,"cult":2430,"croch":2431,"creative":2432,"crochet":2433,"forget":2434,"frid":2435,"poetry":2436,"bum":2437,"##ric":2438,"series":2439,"seeing":2440,"grandm":2441,"parrot":2442,"##ards":2443,"terri":2444,"boots":2445,"##ndon":2446,"trees":2447,"motorc":2448,"yo":2449,"expl":2450,"clos":2451,"ve":2452,"seattle":2453,"bull":2454,"russ":2455,"station":2456,"musician":2457,"annoy":2458,"celebr":2459,"certain":2460,"##stery":2461,"roses":2462,"marath":2463,"fla":2464,"waitress":2465,"cash":2466,"hands":2467,"grill":2468,"##rest":2469,"comedy":2470,"designer":2471,"organ":2472,"fancy":2473,"rac":2474,"##icer":2475,"psy":2476,"psych":2477,"plenty":2478,"channe":2479,"london":2480,"visiting":2481,"instruments":2482,"hom":2483,"service":2484,"chinese":2485,"turned":2486,"adore":2487,"tur":2488,"##ters":2489,"##ears":2490,"drums":2491,"test":2492,"ugh":2493,"det":2494,"starting":2495,"unless":2496,"junk":2497,"##roo":2498,"ther":2499,"instrument":2500,"##hahah":2501,"##come":2502,"##bt":2503,"mall":2504,"ru":2505,"##ses":2506,"bee":2507,"camp":2508,"roomm":2509,"roll":2510,"prom":2511,"cartoons":2512,"shoot":2513,"pays":2514,"politics":2515,"##child":2516,"board":2517,"grandchild":2518,"subject":2519,"indeed":2520,"##ale":2521,"shy":2522,"west":2523,"ahahah":2524,"las":2525,"##ler":2526,"building":2527,"skiing":2528,"traveled":2529,"easier":2530,"contact":2531,"quest":2532,"pic":2533,"##ism":2534,"spring":2535,"stuck":2536,"invol":2537,"navy":2538,"##ized":2539,"##ients":2540,"east":2541,"##icing":2542,"##med":2543,"bible":2544,"oper":2545,"##pher":2546,"favour":2547,"space":2548,"##ado":2549,"##iew":2550,"honestly":2551,"neighbor":2552,"##time":2553,"card":2554,"shift":2555,"##ffic":2556,"cab":2557,"means":2558,"dreams":2559,"puppy":2560,"##iny":2561,"lessons":2562,"##lt":2563,"tut":2564,"bored":2565,"##mentary":2566,"energy":2567,"grandchildren":2568,"##set":2569,"vegas":2570,"gives":2571,"experience":2572,"cards":2573,"##ucks":2574,"casino":2575,"channel":2576,"create":2577,"wel":2578,"bell":2579,"mix":2580,"fried":2581,"bread":2582,"grandmother":2583,"25":2584,"medic":2585,"##vous":2586,"exp":2587,"##state":2588,"##iety":2589,"butter":2590,"neph":2591,"romantic":2592,"nephew":2593,"hold":2594,"hmmm":2595,"hurricane":2596,"15":2597,"##form":2598,"##ved":2599,"##arely":2600,"odd":2601,"##app":2602,"recipes":2603,"pepper":2604,"boston":2605,"nervous":2606,"##vett":2607,"##icy":2608,"fact":2609,"##gia":2610,"favourite":2611,"sign":2612,"door":2613,"mem":2614,"meeting":2615,"ore":2616,"potatoes":2617,"##reci":2618,"soda":2619,"ben":2620,"point":2621,"bass":2622,"##tern":2623,"museum":2624,"ob":2625,"beauty":2626,"product":2627,"simple":2628,"plants":2629,"pres":2630,"barb":2631,"##hood":2632,"wall":2633,"cond":2634,"veterin":2635,"therap":2636,"lead":2637,"staying":2638,"alco":2639,"appreci":2640,"mechanic":2641,"alcohol":2642,"##rit":2643,"beard":2644,"paper":2645,"gh":2646,"opp":2647,"facebook":2648,"origin":2649,"cir":2650,"##em":2651,"gas":2652,"##tles":2653,"##urance":2654,"homework":2655,"jim":2656,"##go":2657,"dire":2658,"sunny":2659,"straight":2660,"cho":2661,"kay":2662,"worker":2663,"asp":2664,"slow":2665,"ohio":2666,"proud":2667,"sleeping":2668,"kat":2669,"ange":2670,"personally":2671,"selling":2672,"##eaking":2673,"welcome":2674,"circ":2675,"bands":2676,"##gn":2677,"##atter":2678,"cru":2679,"superher":2680,"trave":2681,"depends":2682,"insurance":2683,"dye":2684,"sam":2685,"golf":2686,"hip":2687,"##ka":2688,"##mmy":2689,"decor":2690,"##ase":2691,"became":2692,"##oop":2693,"meals":2694,"16":2695,"hond":2696,"gross":2697,"grown":2698,"coach":2699,"practicing":2700,"satur":2701,"anx":2702,"##ided":2703,"justin":2704,"helped":2705,"baker":2706,"saturday":2707,"national":2708,"om":2709,"speaking":2710,"sadly":2711,"complete":2712,"smoke":2713,"##ansas":2714,"televis":2715,"hea":2716,"using":2717,"folk":2718,"match":2719,"##era":2720,"mystery":2721,"##ility":2722,"clothing":2723,"danger":2724,"curly":2725,"viking":2726,"public":2727,"bill":2728,"none":2729,"##pons":2730,"jour":2731,"happens":2732,"issues":2733,"snack":2734,"##oose":2735,"coll":2736,"research":2737,"sewing":2738,"disapp":2739,"jeal":2740,"env":2741,"japanese":2742,"jealous":2743,"civ":2744,"##we":2745,"##isc":2746,"##cha":2747,"##dog":2748,"athlet":2749,"honda":2750,"due":2751,"throw":2752,"tutor":2753,"##ging":2754,"media":2755,"climbing":2756,"dating":2757,"haw":2758,"traffic":2759,"gave":2760,"eh":2761,"reminds":2762,"lu":2763,"colorado":2764,"##irt":2765,"manager":2766,"scr":2767,"potter":2768,"cree":2769,"nyc":2770,"##kets":2771,"forever":2772,"enc":2773,"employed":2774,"rose":2775,"lover":2776,"officer":2777,"event":2778,"skateboard":2779,"elementary":2780,"neither":2781,"blind":2782,"##osed":2783,"corvett":2784,"##mend":2785,"##ency":2786,"ghost":2787,"aud":2788,"restaurants":2789,"crime":2790,"stink":2791,"stones":2792,"manage":2793,"phys":2794,"beatles":2795,"mars":2796,"golden":2797,"jack":2798,"mart":2799,"##terday":2800,"yesterday":2801,"youre":2802,"dangerous":2803,"##ey":2804,"lift":2805,"oldest":2806,"deliver":2807,"##gar":2808,"chi":2809,"indust":2810,"##lie":2811,"##ware":2812,"##ina":2813,"##ific":2814,"retail":2815,"photos":2816,"television":2817,"toes":2818,"##cell":2819,"hous":2820,"goodness":2821,"grandma":2822,"priv":2823,"200":2824,"soul":2825,"breed":2826,"obsessed":2827,"##ison":2828,"##orable":2829,"snake":2830,"##pr":2831,"snakes":2832,"ire":2833,"literature":2834,"ireland":2835,"reader":2836,"twice":2837,"punk":2838,"##rol":2839,"bakery":2840,"gig":2841,"une":2842,"##col":2843,"alive":2844,"advice":2845,"finally":2846,"cust":2847,"sau":2848,"nights":2849,"##gery":2850,"hipp":2851,"surgery":2852,"popular":2853,"austral":2854,"australia":2855,"##ley":2856,"plant":2857,"##vest":2858,"depress":2859,"den":2860,"kansas":2861,"pi":2862,"prep":2863,"kitch":2864,"general":2865,"eight":2866,"##bit":2867,"##ram":2868,"project":2869,"tar":2870,"superman":2871,"masters":2872,"sen":2873,"community":2874,"envir":2875,"parties":2876,"send":2877,"regular":2878,"hates":2879,"chip":2880,"careful":2881,"kitchen":2882,"action":2883,"parks":2884,"wrest":2885,"trail":2886,"deep":2887,"keeping":2888,"scen":2889,"veterinarian":2890,"mile":2891,"silly":2892,"homes":2893,"beans":2894,"particular":2895,"##nal":2896,"##ems":2897,"chea":2898,"kinderg":2899,"drinks":2900,"hawai":2901,"kindergart":2902,"mer":2903,"human":2904,"assist":2905,"chevy":2906,"flo":2907,"indian":2908,"er":2909,"toy":2910,"##itch":2911,"motorcycle":2912,"suck":2913,"14":2914,"loving":2915,"actress":2916,"et":2917,"decided":2918,"accounting":2919,"##usting":2920,"excell":2921,"grandpare":2922,"excellent":2923,"plane":2924,"tou":2925,"##atural":2926,"opera":2927,"corvette":2928,"donate":2929,"paid":2930,"nose":2931,"sweets":2932,"dragon":2933,"ou":2934,"england":2935,"dropped":2936,"occas":2937,"houses":2938,"diving":2939,"bart":2940,"##ives":2941,"##ulous":2942,"skyd":2943,"normal":2944,"rocks":2945,"##itions":2946,"spir":2947,"spicy":2948,"spec":2949,"##arious":2950,"##oming":2951,"runs":2952,"fu":2953,"google":2954,"##ned":2955,"##ycling":2956,"treat":2957,"bunch":2958,"chang":2959,"hawaii":2960,"pump":2961,"collecting":2962,"ast":2963,"bing":2964,"private":2965,"##like":2966,"holiday":2967,"etc":2968,"industry":2969,"peaceful":2970,"appreciate":2971,"journal":2972,"bars":2973,"exha":2974,"smile":2975,"million":2976,"pil":2977,"##onment":2978,"##ops":2979,"##burgers":2980,"tuna":2981,"##ato":2982,"ferr":2983,"form":2984,"brit":2985,"nie":2986,"kidding":2987,"salesman":2988,"lifest":2989,"blame":2990,"longer":2991,"##apt":2992,"igu":2993,"charlie":2994,"christian":2995,"kindergarten":2996,"george":2997,"##cake":2998,"todd":2999,"50":3000,"highs":3001,"adopt":3002,"jane":3003,"custom":3004,"##pped":3005,"cross":3006,"karate":3007,"lifestyle":3008,"forest":3009,"knows":3010,"teachers":3011,"films":3012,"environment":3013,"##oid":3014,"gree":3015,"babys":3016,"burrit":3017,"dan":3018,"##haps":3019,"perhaps":3020,"worried":3021,"track":3022,"problems":3023,"key":3024,"guns":3025,"disappo":3026,"fi":3027,"league":3028,"##hear":3029,"##ural":3030,"##irty":3031,"sugar":3032,"athlete":3033,"rent":3034,"dess":3035,"entertain":3036,"dessert":3037,"wrote":3038,"leather":3039,"half":3040,"princ":3041,"bb":3042,"##gon":3043,"passionate":3044,"holidays":3045,"cry":3046,"hell":3047,"arts":3048,"ahh":3049,"handle":3050,"juice":3051,"unemployed":3052,"non":3053,"prius":3054,"parent":3055,"low":3056,"##cu":3057,"worst":3058,"phil":3059,"dou":3060,"jew":3061,"##ique":3062,"highschool":3063,"babysit":3064,"number":3065,"role":3066,"babies":3067,"bout":3068,"acr":3069,"kitten":3070,"film":3071,"flying":3072,"georgia":3073,"stock":3074,"woods":3075,"##min":3076,"romance":3077,"lim":3078,"teaches":3079,"##inary":3080,"inside":3081,"trips":3082,"##aa":3083,"devel":3084,"flower":3085,"constru":3086,"tic":3087,"##mart":3088,"neighbors":3089,"question":3090,"senior":3091,"assistant":3092,"sol":3093,"incl":3094,"gar":3095,"lay":3096,"lottery":3097,"biking":3098,"chili":3099,"adorable":3100,"stores":3101,"jer":3102,"mort":3103,"##ppers":3104,"##ains":3105,"recom":3106,"brand":3107,"annoying":3108,"pon":3109,"however":3110,"occasion":3111,"fing":3112,"##ician":3113,"##tim":3114,"dads":3115,"baltim":3116,"religious":3117,"portland":3118,"baltimore":3119,"size":3120,"fasc":3121,"##ze":3122,"##round":3123,"pretend":3124,"basically":3125,"grades":3126,"burger":3127,"fascin":3128,"scientist":3129,"##ounds":3130,"bigg":3131,"surpr":3132,"earl":3133,"##room":3134,"vir":3135,"comfort":3136,"folks":3137,"travelling":3138,"commer":3139,"steph":3140,"recommend":3141,"washing":3142,"##iance":3143,"telling":3144,"feels":3145,"anxiety":3146,"walmart":3147,"##bucks":3148,"starbucks":3149,"program":3150,"subur":3151,"pleasure":3152,"sar":3153,"compl":3154,"honey":3155,"que":3156,"##anta":3157,"##abet":3158,"reality":3159,"chickens":3160,"agre":3161,"##wer":3162,"rolling":3163,"##od":3164,"heights":3165,"sched":3166,"professionally":3167,"attention":3168,"straw":3169,"across":3170,"40":3171,"words":3172,"drives":3173,"pigs":3174,"##lley":3175,"stars":3176,"17":3177,"frank":3178,"carrot":3179,"saying":3180,"circus":3181,"21":3182,"loud":3183,"##iry":3184,"##iam":3185,"##aged":3186,"panc":3187,"##he":3188,"moon":3189,"pumpk":3190,"mmm":3191,"pand":3192,"united":3193,"baked":3194,"dea":3195,"nap":3196,"reach":3197,"grands":3198,"omg":3199,"becoming":3200,"opt":3201,"##fish":3202,"unic":3203,"owl":3204,"cruise":3205,"front":3206,"grandparents":3207,"retrie":3208,"earlier":3209,"pregn":3210,"pean":3211,"nephews":3212,"dam":3213,"tables":3214,"##fy":3215,"invest":3216,"marri":3217,"bye":3218,"strawber":3219,"yup":3220,"esc":3221,"natural":3222,"##wards":3223,"jewel":3224,"##urity":3225,"finding":3226,"technology":3227,"pies":3228,"##over":3229,"bummer":3230,"bie":3231,"losing":3232,"pilot":3233,"commercial":3234,"bieber":3235,"grass":3236,"reject":3237,"##aring":3238,"awe":3239,"300":3240,"dig":3241,"tax":3242,"##ern":3243,"located":3244,"jewelry":3245,"lizard":3246,"construction":3247,"##zz":3248,"needed":3249,"##ule":3250,"choir":3251,"dang":3252,"unc":3253,"gosh":3254,"gaming":3255,"certainly":3256,"fest":3257,"tiny":3258,"##mon":3259,"##lies":3260,"forg":3261,"interests":3262,"raise":3263,"adventure":3264,"mic":3265,"##oh":3266,"##corn":3267,"##pping":3268,"intro":3269,"fell":3270,"popcorn":3271,"burgers":3272,"volley":3273,"superhero":3274,"sold":3275,"surv":3276,"metall":3277,"subway":3278,"cos":3279,"typ":3280,"buying":3281,"bbq":3282,"prop":3283,"hotel":3284,"divorce":3285,"##wood":3286,"##arth":3287,"chess":3288,"##ealthy":3289,"athletic":3290,"spot":3291,"friday":3292,"products":3293,"sil":3294,"lob":3295,"ans":3296,"fab":3297,"##verage":3298,"racing":3299,"sauce":3300,"corn":3301,"##can":3302,"anti":3303,"tons":3304,"##list":3305,"horseback":3306,"activities":3307,"inspir":3308,"airpl":3309,"constant":3310,"ep":3311,"emp":3312,"sugg":3313,"volunteering":3314,"suggest":3315,"##wich":3316,"##read":3317,"##oooo":3318,"freel":3319,"smooth":3320,"sandwich":3321,"marathons":3322,"deaf":3323,"mans":3324,"perry":3325,"musical":3326,"disab":3327,"joke":3328,"tomatoes":3329,"stephen":3330,"##ged":3331,"serve":3332,"avoid":3333,"marriage":3334,"clear":3335,"peppers":3336,"security":3337,"##vin":3338,"dor":3339,"finance":3340,"##ologist":3341,"##ographer":3342,"india":3343,"ways":3344,"##otic":3345,"##aska":3346,"##omy":3347,"##ille":3348,"agency":3349,"handful":3350,"##amps":3351,"enjoyed":3352,"syst":3353,"distract":3354,"disco":3355,"matter":3356,"##idence":3357,"thankfully":3358,"ranch":3359,"metallica":3360,"dentist":3361,"medit":3362,"jud":3363,"rural":3364,"spid":3365,"nfl":3366,"##ety":3367,"doubt":3368,"chew":3369,"finishing":3370,"##omb":3371,"schedule":3372,"##ban":3373,"clients":3374,"agreed":3375,"cooked":3376,"##oni":3377,"word":3378,"pancakes":3379,"fort":3380,"##af":3381,"thinks":3382,"brain":3383,"kara":3384,"flu":3385,"perform":3386,"##iliar":3387,"boo":3388,"possible":3389,"pounds":3390,"skills":3391,"grandk":3392,"toyota":3393,"fabulous":3394,"pair":3395,"squ":3396,"##ship":3397,"third":3398,"whis":3399,"bulldog":3400,"beef":3401,"marry":3402,"bath":3403,"##ba":3404,"requ":3405,"competitive":3406,"sundays":3407,"##ien":3408,"desert":3409,"hy":3410,"lou":3411,"vamp":3412,"studies":3413,"visited":3414,"cashier":3415,"jump":3416,"pood":3417,"##ilar":3418,"trick":3419,"sweethear":3420,"##lex":3421,"ev":3422,"##cue":3423,"##reme":3424,"temp":3425,"weeks":3426,"##head":3427,"situ":3428,"software":3429,"doll":3430,"##ows":3431,"familiar":3432,"attract":3433,"discover":3434,"gay":3435,"hurts":3436,"princess":3437,"dyed":3438,"gamb":3439,"engineering":3440,"mood":3441,"choose":3442,"brownies":3443,"ec":3444,"##ania":3445,"bub":3446,"biology":3447,"karaoke":3448,"island":3449,"graph":3450,"foreign":3451,"accept":3452,"journalist":3453,"wings":3454,"##house":3455,"programm":3456,"cuis":3457,"grandkids":3458,"nick":3459,"##nes":3460,"unique":3461,"##ubby":3462,"comedian":3463,"##utes":3464,"estate":3465,"mike":3466,"worries":3467,"stressed":3468,"clubs":3469,"russia":3470,"nuts":3471,"##mo":3472,"dem":3473,"tickets":3474,"washington":3475,"##zel":3476,"##wise":3477,"mush":3478,"brun":3479,"##lead":3480,"worse":3481,"broc":3482,"penn":3483,"organized":3484,"chall":3485,"100":3486,"fitness":3487,"challen":3488,"bat":3489,"electric":3490,"condo":3491,"##jack":3492,"cheap":3493,"disappoint":3494,"programming":3495,"elvis":3496,"extreme":3497,"yuck":3498,"knee":3499,"pregnant":3500,"bright":3501,"taken":3502,"relate":3503,"##ophy":3504,"civic":3505,"rul":3506,"franc":3507,"conne":3508,"buddy":3509,"biggest":3510,"system":3511,"iced":3512,"prince":3513,"disc":3514,"originally":3515,"##coli":3516,"broccoli":3517,"cent":3518,"birds":3519,"spiders":3520,"halo":3521,"##isco":3522,"cheerlead":3523,"touch":3524,"gummy":3525,"##ccess":3526,"oly":3527,"ze":3528,"ref":3529,"skit":3530,"finan":3531,"jog":3532,"bage":3533,"trump":3534,"virgin":3535,"strugg":3536,"carrots":3537,"ko":3538,"##ville":3539,"##field":3540,"cheesecake":3541,"medicine":3542,"brew":3543,"complain":3544,"festiv":3545,"lobster":3546,"comb":3547,"minutes":3548,"26":3549,"olymp":3550,"beets":3551,"proc":3552,"broken":3553,"ink":3554,"##llywood":3555,"guard":3556,"published":3557,"bon":3558,"cheet":3559,"constantly":3560,"ooh":3561,"##cakes":3562,"##itor":3563,"##iled":3564,"barely":3565,"record":3566,"earth":3567,"##to":3568,"thri":3569,"items":3570,"##rib":3571,"atl":3572,"carolin":3573,"friendly":3574,"salads":3575,"ouch":3576,"dry":3577,"##riends":3578,"katy":3579,"ferrari":3580,"bun":3581,"##asty":3582,"brought":3583,"advert":3584,"farmers":3585,"roommates":3586,"burritos":3587,"##west":3588,"los":3589,"expect":3590,"##ucky":3591,"drove":3592,"talented":3593,"23":3594,"indie":3595,"sarah":3596,"angry":3597,"countries":3598,"breath":3599,"trains":3600,"bears":3601,"irma":3602,"graphic":3603,"gal":3604,"success":3605,"contacts":3606,"nasty":3607,"##ker":3608,"##unge":3609,"alaska":3610,"carolina":3611,"bald":3612,"ideas":3613,"easily":3614,"paying":3615,"cupcakes":3616,"schol":3617,"childhood":3618,"comedies":3619,"##rated":3620,"souther":3621,"fingers":3622,"##pac":3623,"##lled":3624,"alb":3625,"belt":3626,"taller":3627,"wars":3628,"owner":3629,"35":3630,"blues":3631,"amazon":3632,"##pap":3633,"exam":3634,"planes":3635,"scratch":3636,"fear":3637,"hil":3638,"##geous":3639,"candles":3640,"tasty":3641,"magaz":3642,"completely":3643,"ol":3644,"trainer":3645,"stopped":3646,"sus":3647,"##vious":3648,"##ental":3649,"river":3650,"##ium":3651,"prot":3652,"hollywood":3653,"flavor":3654,"kayaking":3655,"virginia":3656,"mention":3657,"##hop":3658,"similar":3659,"fif":3660,"jas":3661,"yard":3662,"##oe":3663,"##ikes":3664,"##illa":3665,"furn":3666,"view":3667,"##oun":3668,"spain":3669,"sweetheart":3670,"peps":3671,"develop":3672,"rules":3673,"pepsi":3674,"gor":3675,"overs":3676,"fruits":3677,"##arship":3678,"scholarship":3679,"du":3680,"##hh":3681,"drum":3682,"meatlo":3683,"meatloaf":3684,"wives":3685,"##ination":3686,"winning":3687,"newspap":3688,"repair":3689,"position":3690,"freelance":3691,"##used":3692,"##ckles":3693,"##cious":3694,"##arm":3695,"involved":3696,"target":3697,"poodle":3698,"jac":3699,"stamps":3700,"runner":3701,"bikes":3702,"diner":3703,"fart":3704,"crafts":3705,"physical":3706,"thrill":3707,"coke":3708,"potato":3709,"weak":3710,"##met":3711,"engaged":3712,"strict":3713,"addict":3714,"clowns":3715,"employ":3716,"events":3717,"headed":3718,"raining":3719,"##ius":3720,"cover":3721,"nut":3722,"vint":3723,"beh":3724,"##ashed":3725,"heavy":3726,"vintage":3727,"dirty":3728,"fiance":3729,"miam":3730,"##care":3731,"##hic":3732,"dishes":3733,"miami":3734,"oil":3735,"rare":3736,"schools":3737,"owns":3738,"internship":3739,"answer":3740,"bugs":3741,"##arks":3742,"veggie":3743,"organic":3744,"audition":3745,"francisco":3746,"southern":3747,"joy":3748,"page":3749,"calm":3750,"volleyball":3751,"32":3752,"desp":3753,"barbe":3754,"retirement":3755,"11":3756,"##father":3757,"##iture":3758,"##balls":3759,"diabet":3760,"caf":3761,"recipe":3762,"furniture":3763,"kale":3764,"nach":3765,"shot":3766,"trade":3767,"convers":3768,"##ahu":3769,"cows":3770,"robot":3771,"##pin":3772,"wash":3773,"prote":3774,"behind":3775,"##hile":3776,"habit":3777,"soci":3778,"awhile":3779,"normally":3780,"wake":3781,"case":3782,"eag":3783,"giving":3784,"whenever":3785,"pod":3786,"gymn":3787,"bowling":3788,"sty":3789,"cooler":3790,"oregon":3791,"philos":3792,"average":3793,"tips":3794,"gotcha":3795,"##ista":3796,"buff":3797,"rainy":3798,"canadian":3799,"cen":3800,"lie":3801,"##ared":3802,"sex":3803,"instructor":3804,"sorts":3805,"cabin":3806,"pierc":3807,"center":3808,"pants":3809,"jello":3810,"##ials":3811,"##ories":3812,"deb":3813,"##rove":3814,"burn":3815,"##esse":3816,"##ences":3817,"socks":3818,"beers":3819,"ted":3820,"##illed":3821,"pride":3822,"carry":3823,"##ibly":3824,"madonna":3825,"connect":3826,"##amed":3827,"therapist":3828,"barte":3829,"fascinating":3830,"kent":3831,"wisc":3832,"trad":3833,"##onsin":3834,"##order":3835,"smoking":3836,"seriously":3837,"unicorn":3838,"wisconsin":3839,"80s":3840,"rand":3841,"ste":3842,"studied":3843,"offer":3844,"farmer":3845,"purse":3846,"rice":3847,"inspiration":3848,"nachos":3849,"blast":3850,"##rup":3851,"##cast":3852,"##aters":3853,"salon":3854,"##ycl":3855,"##acters":3856,"characters":3857,"##ronic":3858,"ut":3859,"speed":3860,"##ined":3861,"eater":3862,"maine":3863,"braces":3864,"nerd":3865,"knitting":3866,"lasag":3867,"##sa":3868,"bless":3869,"##uba":3870,"photographer":3871,"china":3872,"models":3873,"oppos":3874,"##anes":3875,"howdy":3876,"louis":3877,"24":3878,"search":3879,"studio":3880,"mansion":3881,"kentucky":3882,"fur":3883,"##arn":3884,"motiv":3885,"protect":3886,"known":3887,"spelling":3888,"barista":3889,"roommate":3890,"protein":3891,"dear":3892,"luckily":3893,"dislike":3894,"eventually":3895,"pickles":3896,"um":3897,"trained":3898,"lasagna":3899,"##iling":3900,"freak":3901,"##umbers":3902,"philosophy":3903,"loss":3904,"understandable":3905,"ach":3906,"##ume":3907,"##otion":3908,"crow":3909,"heading":3910,"russian":3911,"stinks":3912,"strawberries":3913,"bruno":3914,"hilarious":3915,"pal":3916,"tit":3917,"camera":3918,"against":3919,"creep":3920,"bagels":3921,"cred":3922,"sour":3923,"designing":3924,"grandson":3925,"bic":3926,"sight":3927,"##bl":3928,"dru":3929,"missing":3930,"respect":3931,"gorgeous":3932,"picture":3933,"whiskey":3934,"podcast":3935,"##uahu":3936,"201":3937,"bot":3938,"dust":3939,"##dings":3940,"allergy":3941,"bowl":3942,"voices":3943,"oc":3944,"uh":3945,"##view":3946,"shame":3947,"##izing":3948,"##aps":3949,"daddy":3950,"ocd":3951,"preach":3952,"sunset":3953,"broad":3954,"james":3955,"ven":3956,"greet":3957,"legal":3958,"chilling":3959,"lapt":3960,"hikes":3961,"##ilight":3962,"teen":3963,"twilight":3964,"leaving":3965,"floor":3966,"##rect":3967,"creating":3968,"pug":3969,"dolls":3970,"spo":3971,"prov":3972,"wondering":3973,"entire":3974,"flav":3975,"ghosts":3976,"overseas":3977,"##anas":3978,"altern":3979,"cell":3980,"cuisine":3981,"path":3982,"##healthy":3983,"##fied":3984,"##itect":3985,"counts":3986,"unhealthy":3987,"girlfriends":3988,"architect":3989,"bene":3990,"jun":3991,"till":3992,"##ala":3993,"painter":3994,"exhausting":3995,"escape":3996,"##ession":3997,"wheelch":3998,"newspaper":3999,"control":4000,"wrestling":4001,"gymnast":4002,"rights":4003,"##ances":4004,"income":4005,"competitions":4006,"grandpa":4007,"recover":4008,"putting":4009,"champ":4010,"fighting":4011,"colored":4012,"lord":4013,"awww":4014,"homeless":4015,"programmer":4016,"forgot":4017,"##ode":4018,"political":4019,"roller":4020,"spirit":4021,"mis":4022,"spears":4023,"gotten":4024,"advertising":4025,"snowboard":4026,"credit":4027,"secretary":4028,"uncle":4029,"random":4030,"000":4031,"dental":4032,"hero":4033,"fund":4034,"ver":4035,"vanilla":4036,"encycl":4037,"encycloped":4038,"cud":4039,"planned":4040,"##play":4041,"transl":4042,"retriever":4043,"judge":4044,"##obi":4045,"gum":4046,"adam":4047,"autograph":4048,"killed":4049,"turtles":4050,"equ":4051,"moped":4052,"pad":4053,"##ees":4054,"##urs":4055,"##ictor":4056,"##road":4057,"mines":4058,"weddings":4059,"compete":4060,"laughing":4061,"fry":4062,"bm":4063,"mist":4064,"beats":4065,"meatballs":4066,"earn":4067,"5th":4068,"tab":4069,"##ised":4070,"outdoor":4071,"hamburgers":4072,"merma":4073,"disabled":4074,"jan":4075,"nin":4076,"##ionist":4077,"airplanes":4078,"ooo":4079,"skittles":4080,"##huahu":4081,"##atures":4082,"husky":4083,"198":4084,"chihuahu":4085,"qual":4086,"pharm":4087,"commute":4088,"budd":4089,"avid":4090,"opposite":4091,"dest":4092,"webs":4093,"goods":4094,"shops":4095,"angeles":4096,"60":4097,"##ades":4098,"##tsbur":4099,"pittsbur":4100,"nasc":4101,"anyways":4102,"rides":4103,"correct":4104,"nascar":4105,"ban":4106,"kiss":4107,"mur":4108,"##ury":4109,"##lph":4110,"psychology":4111,"##nic":4112,"##ctic":4113,"enjoyable":4114,"ages":4115,"marathon":4116,"weed":4117,"brings":4118,"professor":4119,"decent":4120,"decide":4121,"total":4122,"turns":4123,"publishing":4124,"specif":4125,"mal":4126,"##ca":4127,"scot":4128,"purs":4129,"thoughts":4130,"campus":4131,"depressed":4132,"spouse":4133,"legs":4134,"archery":4135,"nieces":4136,"mass":4137,"table":4138,"sweater":4139,"cafe":4140,"rude":4141,"based":4142,"tennesse":4143,"direction":4144,"hubby":4145,"houston":4146,"literally":4147,"jimmy":4148,"extremely":4149,"wheelchair":4150,"ring":4151,"yikes":4152,"lion":4153,"chair":4154,"twenty":4155,"beaches":4156,"midwest":4157,"religion":4158,"##viously":4159,"clou":4160,"winters":4161,"explore":4162,"therapy":4163,"survive":4164,"tennessee":4165,"stew":4166,"britney":4167,"thrift":4168,"gri":4169,"##rs":4170,"inj":4171,"shall":4172,"commit":4173,"incred":4174,"specifically":4175,"rarely":4176,"##fit":4177,"bmw":4178,"steel":4179,"heck":4180,"exotic":4181,"deer":4182,"adult":4183,"reside":4184,"ara":4185,"##iant":4186,"member":4187,"rapper":4188,"cowork":4189,"aqu":4190,"jess":4191,"opin":4192,"parts":4193,"puert":4194,"##inos":4195,"##eth":4196,"chas":4197,"inte":4198,"##la":4199,"thurs":4200,"##ntly":4201,"vegetable":4202,"stranger":4203,"indo":4204,"raising":4205,"comfortable":4206,"caught":4207,"lad":4208,"nation":4209,"vera":4210,"##dream":4211,"tofu":4212,"attor":4213,"damn":4214,"helpful":4215,"nearby":4216,"raw":4217,"supplies":4218,"dairy":4219,"dying":4220,"martial":4221,"bf":4222,"##ief":4223,"calls":4224,"steaks":4225,"includ":4226,"gif":4227,"sat":4228,"##port":4229,"gover":4230,"relationships":4231,"broadway":4232,"iq":4233,"looked":4234,"##ette":4235,"##che":4236,"##lder":4237,"upset":4238,"financial":4239,"round":4240,"shirt":4241,"wanting":4242,"text":4243,"appare":4244,"paintings":4245,"pull":4246,"var":4247,"crash":4248,"dressing":4249,"weights":4250,"diego":4251,"##ners":4252,"shell":4253,"positive":4254,"##ictorian":4255,"thursday":4256,"farms":4257,"##ira":4258,"##ortun":4259,"agent":4260,"opportun":4261,"ped":4262,"stri":4263,"supposed":4264,"dj":4265,"jen":4266,"orph":4267,"competition":4268,"quickly":4269,"iguanas":4270,"puerto":4271,"cure":4272,"link":4273,"lame":4274,"wast":4275,"##vey":4276,"daydream":4277,"##ardy":4278,"alternative":4279,"apparently":4280,"cycling":4281,"val":4282,"wide":4283,"chase":4284,"orle":4285,"faster":4286,"master":4287,"rug":4288,"kittens":4289,"vampire":4290,"lat":4291,"tail":4292,"fake":4293,"##ada":4294,"drama":4295,"respons":4296,"pumpkin":4297,"attorney":4298,"toys":4299,"##nding":4300,"scout":4301,"toto":4302,"austin":4303,"occasionally":4304,"commercials":4305,"ging":4306,"myster":4307,"otherwise":4308,"artistic":4309,"skydiving":4310,"addicted":4311,"dut":4312,"fires":4313,"grab":4314,"explor":4315,"creepy":4316,"pairs":4317,"thin":4318,"hectic":4319,"soup":4320,"picky":4321,"ris":4322,"##mar":4323,"##rd":4324,"##for":4325,"convert":4326,"phones":4327,"lands":4328,"evil":4329,"situation":4330,"22":4331,"fost":4332,"##vania":4333,"painted":4334,"foster":4335,"tooth":4336,"##alach":4337,"upstate":4338,"drank":4339,"teller":4340,"related":4341,"appalach":4342,"pittsburgh":4343,"appalachian":4344,"vers":4345,"##eran":4346,"##itude":4347,"##store":4348,"humor":4349,"culture":4350,"silver":4351,"kick":4352,"##bing":4353,"daycare":4354,"travels":4355,"recept":4356,"mothers":4357,"##fits":4358,"##oof":4359,"height":4360,"affect":4361,"recent":4362,"medium":4363,"decorate":4364,"orleans":4365,"bother":4366,"quart":4367,"court":4368,"conversation":4369,"##ches":4370,"##opardy":4371,"asian":4372,"salsa":4373,"missed":4374,"trek":4375,"insane":4376,"jeopardy":4377,"orphan":4378,"gather":4379,"##aced":4380,"bigger":4381,"papers":4382,"magazine":4383,"bartender":4384,"eth":4385,"##keep":4386,"steal":4387,"ship":4388,"grey":4389,"print":4390,"caring":4391,"listened":4392,"blackjack":4393,"opened":4394,"arab":4395,"stays":4396,"pret":4397,"countryside":4398,"tours":4399,"govern":4400,"ill":4401,"##bu":4402,"asked":4403,"##oles":4404,"##apes":4405,"contin":4406,"dresses":4407,"##guard":4408,"urban":4409,"skydive":4410,"slave":4411,"vacations":4412,"fights":4413,"lawyers":4414,"asth":4415,"ross":4416,"##vid":4417,"heat":4418,"carb":4419,"dev":4420,"cookie":4421,"bookstore":4422,"david":4423,"germany":4424,"tunes":4425,"peanut":4426,"gf":4427,"jers":4428,"##artment":4429,"ident":4430,"ponies":4431,"dow":4432,"##unt":4433,"cler":4434,"debt":4435,"skill":4436,"binge":4437,"aquari":4438,"##ises":4439,"worms":4440,"cattle":4441,"casinos":4442,"catching":4443,"3rd":4444,"##imate":4445,"mommy":4446,"swift":4447,"matches":4448,"cs":4449,"##ona":4450,"coinc":4451,"aside":4452,"crush":4453,"iceland":4454,"greek":4455,"ginger":4456,"wol":4457,"##aker":4458,"press":4459,"pin":4460,"##lvania":4461,"##usted":4462,"shep":4463,"express":4464,"chips":4465,"##irts":4466,"awake":4467,"courses":4468,"artists":4469,"greece":4470,"downt":4471,"rush":4472,"##fo":4473,"##uly":4474,"clar":4475,"truly":4476,"scream":4477,"skating":4478,"kitty":4479,"considered":4480,"neighborhood":4481,"dorm":4482,"gambling":4483,"paddle":4484,"asthma":4485,"shepher":4486,"return":4487,"##books":4488,"department":4489,"matt":4490,"spell":4491,"steelers":4492,"redhead":4493,"purp":4494,"fallon":4495,"sunsh":4496,"sunshine":4497,"hm":4498,"nike":4499,"graduating":4500,"##burger":4501,"hurricanes":4502,"goals":4503,"##ores":4504,"whoa":4505,"accent":4506,"activity":4507,"laptop":4508,"##cil":4509,"surround":4510,"belong":4511,"kevin":4512,"iguana":4513,"##riz":4514,"##uel":4515,"boxer":4516,"festivals":4517,"bees":4518,"tiger":4519,"##anding":4520,"eats":4521,"heads":4522,"cutting":4523,"gamer":4524,"##sylvania":4525,"allowed":4526,"pennsylvania":4527,"fed":4528,"mater":4529,"##cked":4530,"cher":4531,"afr":4532,"closet":4533,"sandwiches":4534,"##den":4535,"musc":4536,"##ibility":4537,"veteran":4538,"society":4539,"suit":4540,"mang":4541,"lifeguard":4542,"mornings":4543,"ended":4544,"successful":4545,"hah":4546,"load":4547,"terrified":4548,"pandas":4549,"fortunate":4550,"crowd":4551,"##vada":4552,"nevada":4553,"mult":4554,"farming":4555,"bingo":4556,"drummer":4557,"chihuahua":4558,"jersey":4559,"ly":4560,"mut":4561,"pear":4562,"scre":4563,"##ulf":4564,"intense":4565,"genres":4566,"inspired":4567,"tradition":4568,"cable":4569,"##ilt":4570,"##roit":4571,"puzz":4572,"detroit":4573,"angel":4574,"environmental":4575,"receptionist":4576,"shepard":4577,"drunk":4578,"harder":4579,"sav":4580,"skunk":4581,"bitco":4582,"baller":4583,"robert":4584,"activist":4585,"queen":4586,"ib":4587,"ray":4588,"tiring":4589,"##bull":4590,"carbs":4591,"interior":4592,"uncom":4593,"salt":4594,"pitbull":4595,"13":4596,"##ground":4597,"##eral":4598,"guessing":4599,"dealing":4600,"antique":4601,"kic":4602,"loy":4603,"weekly":4604,"deser":4605,"##place":4606,"charity":4607,"minnes":4608,"settle":4609,"suburbs":4610,"temper":4611,"clerk":4612,"##ered":4613,"docu":4614,"##iana":4615,"homem":4616,"scares":4617,"##pon":4618,"##bers":4619,"##uten":4620,"cathol":4621,"##agram":4622,"gluten":4623,"instagram":4624,"bunny":4625,"bicycle":4626,"clouds":4627,"catholic":4628,"max":4629,"py":4630,"calling":4631,"honor":4632,"vehic":4633,"pearl":4634,"##oura":4635,"##stock":4636,"former":4637,"nobody":4638,"##pend":4639,"scoot":4640,"majoring":4641,"eggpl":4642,"detect":4643,"government":4644,"coincidence":4645,"heal":4646,"kep":4647,"##iens":4648,"aliens":4649,"prison":4650,"mcque":4651,"joined":4652,"allows":4653,"kept":4654,"mcqueen":4655,"peoples":4656,"adv":4657,"flash":4658,"talks":4659,"podcasts":4660,"jugg":4661,"tells":4662,"flip":4663,"desk":4664,"##vens":4665,"possibly":4666,"drugs":4667,"preacher":4668,"rugby":4669,"bache":4670,"##teen":4671,"##bras":4672,"bubble":4673,"zebras":4674,"bachelor":4675,"gift":4676,"tree":4677,"thick":4678,"##east":4679,"ups":4680,"##umbs":4681,"beast":4682,"fixed":4683,"barbie":4684,"alcoholic":4685,"fluent":4686,"mashed":4687,"rib":4688,"toron":4689,"##ena":4690,"sharks":4691,"loyal":4692,"toronto":4693,"mia":4694,"numbers":4695,"gamble":4696,"symp":4697,"cartoon":4698,"president":4699,"##cket":4700,"spr":4701,"feeding":4702,"tutorials":4703,"scene":4704,"louisiana":4705,"africa":4706,"ariz":4707,"giant":4708,"shirts":4709,"typing":4710,"editing":4711,"kayak":4712,"pony":4713,"landsc":4714,"arizona":4715,"ferre":4716,"electronic":4717,"garage":4718,"minnesota":4719,"sent":4720,"mond":4721,"level":4722,"appl":4723,"particip":4724,"ba":4725,"rout":4726,"##night":4727,"##iest":4728,"anne":4729,"slack":4730,"lifting":4731,"niece":4732,"##atic":4733,"##iles":4734,"##istic":4735,"ahead":4736,"geoc":4737,"softball":4738,"preparing":4739,"les":4740,"tap":4741,"thom":4742,"##ony":4743,"usual":4744,"fisherman":4745,"serving":4746,"keys":4747,"invite":4748,"cultures":4749,"chilly":4750,"ibm":4751,"thomas":4752,"##ilty":4753,"guilty":4754,"cheeseburgers":4755,"lind":4756,"yay":4757,"##vere":4758,"##bles":4759,"##step":4760,"alpac":4761,"##ctose":4762,"footstep":4763,"boats":4764,"lactose":4765,"cape":4766,"techno":4767,"freckles":4768,"lizards":4769,"pepperoni":4770,"scotch":4771,"footsteps":4772,"ses":4773,"##len":4774,"blessed":4775,"fellow":4776,"##ycles":4777,"jacob":4778,"duty":4779,"host":4780,"lines":4781,"##use":4782,"overwe":4783,"planet":4784,"rescue":4785,"storm":4786,"smells":4787,"distance":4788,"picked":4789,"changed":4790,"mysteries":4791,"overweight":4792,"##tar":4793,"##arag":4794,"##rad":4795,"roof":4796,"puppies":4797,"projects":4798,"cosplay":4799,"hid":4800,"pud":4801,"##niv":4802,"##angers":4803,"scar":4804,"exercising":4805,"headache":4806,"addiction":4807,"alex":4808,"gent":4809,"tay":4810,"wea":4811,"theat":4812,"##oted":4813,"##etime":4814,"flood":4815,"parking":4816,"##uffy":4817,"technician":4818,"pleasant":4819,"oreo":4820,"jerry":4821,"searching":4822,"gut":4823,"hers":4824,"tu":4825,"##boy":4826,"beet":4827,"brunch":4828,"relieve":4829,"leaves":4830,"##uggets":4831,"##uth":4832,"orch":4833,"brat":4834,"teeth":4835,"unw":4836,"healthier":4837,"dave":4838,"apolog":4839,"confused":4840,"admin":4841,"caffe":4842,"77":4843,"ends":4844,"##vine":4845,"thre":4846,"##orate":4847,"tigers":4848,"crit":4849,"original":4850,"pretzel":4851,"nash":4852,"pork":4853,"##ford":4854,"stom":4855,"rainb":4856,"pattern":4857,"maryland":4858,"nashville":4859,"uk":4860,"vit":4861,"##name":4862,"##omp":4863,"clue":4864,"mustache":4865,"stayed":4866,"joe":4867,"pens":4868,"snowboarding":4869,"##ience":4870,"tool":4871,"above":4872,"##ila":4873,"depl":4874,"switch":4875,"genius":4876,"changing":4877,"gee":4878,"hence":4879,"happiness":4880,"sneak":4881,"##pense":4882,"tastes":4883,"attending":4884,"suspense":4885,"6th":4886,"lakes":4887,"nancy":4888,"sir":4889,"##ration":4890,"##inder":4891,"artic":4892,"crack":4893,"touring":4894,"nan":4895,"##gles":4896,"suff":4897,"foodie":4898,"piece":4899,"mixed":4900,"astron":4901,"cheetos":4902,"400":4903,"dre":4904,"##iat":4905,"##orter":4906,"##uming":4907,"freed":4908,"members":4909,"27":4910,"cities":4911,"nas":4912,"##fc":4913,"##geb":4914,"hearing":4915,"ironic":4916,"occup":4917,"crocheting":4918,"eggplant":4919,"ni":4920,"waking":4921,"##ately":4922,"eaten":4923,"swed":4924,"sword":4925,"minute":4926,"specific":4927,"stomach":4928,"gang":4929,"##aire":4930,"goss":4931,"chop":4932,"mugg":4933,"pecan":4934,"robots":4935,"admit":4936,"caffeine":4937,"deploy":4938,"freedom":4939,"ble":4940,"dall":4941,"fond":4942,"reas":4943,"arc":4944,"saf":4945,"graders":4946,"retiring":4947,"adventures":4948,"hippie":4949,"ribs":4950,"dallas":4951,"dive":4952,"stat":4953,"everybody":4954,"useful":4955,"falls":4956,"grocer":4957,"obviously":4958,"asparag":4959,"convertible":4960,"asparagus":4961,"aunt":4962,"dunge":4963,"mba":4964,"fault":4965,"greatest":4966,"swimmer":4967,"passions":4968,"peanuts":4969,"cel":4970,"held":4971,"asia":4972,"chees":4973,"suns":4974,"scrub":4975,"creek":4976,"chasing":4977,"border":4978,"jes":4979,"tan":4980,"##town":4981,"hehe":4982,"knees":4983,"gray":4984,"ground":4985,"scooter":4986,"jesus":4987,"34":4988,"dates":4989,"pist":4990,"ult":4991,"##leep":4992,"asleep":4993,"cooks":4994,"owned":4995,"difference":4996,"encoura":4997,"homeschool":4998,"options":4999,"sesame":5000,"darn":5001,"##tit":5002,"##gth":5003,"toe":5004,"##ung":5005,"spon":5006,"felt":5007,"paramed":5008,"accepted":5009,"pond":5010,"wic":5011,"opinion":5012,"ballerina":5013,"ft":5014,"##gal":5015,"creed":5016,"##ographies":5017,"shelters":5018,"larp":5019,"mustangs":5020,"distracted":5021,"hated":5022,"##rop":5023,"thous":5024,"thumbs":5025,"shakes":5026,"nearly":5027,"rapids":5028,"##iversary":5029,"fixing":5030,"anniversary":5031,"fairs":5032,"struggle":5033,"atlanta":5034,"taylor":5035,"bt":5036,"tank":5037,"##mont":5038,"##ales":5039,"anytime":5040,"subs":5041,"spaces":5042,"##oyd":5043,"floyd":5044,"laid":5045,"salary":5046,"imaginary":5047,"closest":5048,"##lif":5049,"##ini":5050,"ohh":5051,"##aging":5052,"drake":5053,"breaks":5054,"paul":5055,"shooting":5056,"director":5057,"civil":5058,"pharmac":5059,"ger":5060,"mr":5061,"rick":5062,"##cher":5063,"plate":5064,"##geon":5065,"argue":5066,"mail":5067,"rail":5068,"aspiring":5069,"homemade":5070,"ket":5071,"##fight":5072,"stan":5073,"arms":5074,"lex":5075,"costco":5076,"discovered":5077,"shellfish":5078,"vitam":5079,"tx":5080,"tah":5081,"##bian":5082,"dober":5083,"whit":5084,"sale":5085,"creatures":5086,"emb":5087,"telecom":5088,"limited":5089,"pretzels":5090,"bead":5091,"site":5092,"##nold":5093,"corner":5094,"skinny":5095,"closer":5096,"customer":5097,"pumpkins":5098,"eagles":5099,"##men":5100,"##rix":5101,"frust":5102,"sem":5103,"sep":5104,"highly":5105,"recycling":5106,"defense":5107,"created":5108,"partying":5109,"handy":5110,"followed":5111,"packing":5112,"denver":5113,"mushroom":5114,"##ouncer":5115,"greetings":5116,"theatre":5117,"ing":5118,"##iced":5119,"within":5120,"noble":5121,"generally":5122,"macar":5123,"memory":5124,"exhausted":5125,"jason":5126,"piercings":5127,"wolves":5128,"wiz":5129,"attack":5130,"irish":5131,"motorcycles":5132,"autographs":5133,"coworker":5134,"quarter":5135,"identical":5136,"detective":5137,"various":5138,"##rious":5139,"hardly":5140,"husk":5141,"typical":5142,"barbecue":5143,"ded":5144,"##ooper":5145,"classics":5146,"purch":5147,"calming":5148,"universe":5149,"authors":5150,"##rooms":5151,"process":5152,"variety":5153,"multip":5154,"dungeons":5155,"dedic":5156,"tup":5157,"fel":5158,"ravens":5159,"killing":5160,"gymnastics":5161,"tupac":5162,"fired":5163,"##off":5164,"summ":5165,"##ffles":5166,"##ured":5167,"##icks":5168,"secretly":5169,"weakness":5170,"despise":5171,"gifted":5172,"batt":5173,"gag":5174,"##mark":5175,"dolph":5176,"mont":5177,"gender":5178,"trumpet":5179,"covered":5180,"robotics":5181,"vermont":5182,"reasons":5183,"rise":5184,"##light":5185,"##wor":5186,"##sel":5187,"painful":5188,"walked":5189,"golfing":5190,"##iscuit":5191,"surprised":5192,"cheerleader":5193,"flavors":5194,"gentle":5195,"mir":5196,"##vana":5197,"towards":5198,"##orke":5199,"exist":5200,"grate":5201,"sax":5202,"snorke":5203,"##ques":5204,"skateboarding":5205,"lexus":5206,"imm":5207,"tor":5208,"stir":5209,"refer":5210,"##riel":5211,"jama":5212,"nic":5213,"nine":5214,"rn":5215,"##lip":5216,"inher":5217,"proof":5218,"hunter":5219,"emotion":5220,"danie":5221,"chewing":5222,"eclip":5223,"purpose":5224,"vehicle":5225,"paramedic":5226,"nuggets":5227,"pac":5228,"whist":5229,"combo":5230,"##hael":5231,"owning":5232,"locally":5233,"basement":5234,"focused":5235,"michael":5236,"bag":5237,"##ching":5238,"##ript":5239,"enjoys":5240,"herbs":5241,"surgeon":5242,"pottery":5243,"epis":5244,"pill":5245,"##pa":5246,"##ether":5247,"##sey":5248,"clin":5249,"accomp":5250,"autism":5251,"dressed":5252,"attractive":5253,"recovering":5254,"pudding":5255,"safety":5256,"pistach":5257,"macaroni":5258,"cd":5259,"dies":5260,"##oon":5261,"alien":5262,"blow":5263,"drones":5264,"redd":5265,"meats":5266,"worlds":5267,"humm":5268,"modern":5269,"hide":5270,"lep":5271,"pant":5272,"##ura":5273,"##ias":5274,"stable":5275,"##ander":5276,"##ulting":5277,"cheers":5278,"balls":5279,"figures":5280,"snacks":5281,"latest":5282,"gossip":5283,"##kins":5284,"##ndrix":5285,"soap":5286,"hendrix":5287,"##ify":5288,"scuba":5289,"freshman":5290,"psychologist":5291,"lucy":5292,"challenging":5293,"achieve":5294,"##gebob":5295,"spongebob":5296,"railroad":5297,"tas":5298,"##using":5299,"approve":5300,"acade":5301,"files":5302,"labrad":5303,"goalie":5304,"mushrooms":5305,"bachelors":5306,"alpacas":5307,"ultimate":5308,"kj":5309,"ufc":5310,"hired":5311,"spl":5312,"troph":5313,"waffles":5314,"lean":5315,"communic":5316,"ladies":5317,"lesbian":5318,"##selves":5319,"trophies":5320,"anat":5321,"noise":5322,"supper":5323,"viol":5324,"monday":5325,"huskies":5326,"biscuit":5327,"elder":5328,"merc":5329,"pan":5330,"races":5331,"##lest":5332,"##bits":5333,"arnold":5334,"##veland":5335,"cleveland":5336,"following":5337,"encyclopedia":5338,"cope":5339,"gila":5340,"hs":5341,"rh":5342,"sin":5343,"sears":5344,"vote":5345,"hazel":5346,"##oma":5347,"review":5348,"coupons":5349,"hearse":5350,"crab":5351,"strangers":5352,"triath":5353,"##ography":5354,"mini":5355,"corp":5356,"written":5357,"patients":5358,"include":5359,"panda":5360,"olympics":5361,"translator":5362,"rome":5363,"##utter":5364,"##uses":5365,"background":5366,"##psy":5367,"autom":5368,"cello":5369,"holding":5370,"memories":5371,"dollars":5372,"utah":5373,"sweden":5374,"##ocks":5375,"##tling":5376,"##ibr":5377,"introdu":5378,"epile":5379,"clinic":5380,"ariel":5381,"dumb":5382,"nir":5383,"pup":5384,"##ki":5385,"##oos":5386,"craving":5387,"##aches":5388,"maid":5389,"autobi":5390,"groups":5391,"puzzles":5392,"suffer":5393,"nirvana":5394,"29":5395,"##zen":5396,"##cess":5397,"##inet":5398,"harley":5399,"moves":5400,"slee":5401,"happening":5402,"attitude":5403,"weightlif":5404,"figured":5405,"unwind":5406,"grateful":5407,"45":5408,"doo":5409,"stup":5410,"##ading":5411,"##amel":5412,"caramel":5413,"saus":5414,"fluffy":5415,"sleepy":5416,"##fortable":5417,"##tendo":5418,"owen":5419,"millionaire":5420,"nintendo":5421,"incredible":5422,"uncomfortable":5423,"thousand":5424,"stupid":5425,"70":5426,"fulf":5427,"##ug":5428,"somewh":5429,"##illing":5430,"til":5431,"confident":5432,"admire":5433,"messy":5434,"questions":5435,"mistake":5436,"jamaica":5437,"anatomy":5438,"somewhat":5439,"##ii":5440,"##edes":5441,"notes":5442,"ank":5443,"##alo":5444,"abig":5445,"quake":5446,"apply":5447,"##box":5448,"warmer":5449,"radi":5450,"attended":5451,"educated":5452,"buffalo":5453,"rollerbl":5454,"including":5455,"doberman":5456,"mercedes":5457,"abigail":5458,"##erv":5459,"##recha":5460,"haird":5461,"wayne":5462,"recycle":5463,"consulting":5464,"standards":5465,"specialty":5466,"austen":5467,"cheetah":5468,"beastie":5469,"leprecha":5470,"leprechaun":5471,"gour":5472,"opening":5473,"copper":5474,"colour":5475,"option":5476,"central":5477,"nasa":5478,"filled":5479,"hook":5480,"vall":5481,"voc":5482,"##ae":5483,"##rings":5484,"faith":5485,"frost":5486,"cloud":5487,"boating":5488,"earrings":5489,"impressed":5490,"fridge":5491,"grasshop":5492,"janitor":5493,"epilepsy":5494,"everest":5495,"traum":5496,"planner":5497,"parake":5498,"woke":5499,"##aughter":5500,"grandfather":5501,"dais":5502,"minim":5503,"godfather":5504,"banker":5505,"champion":5506,"pistachio":5507,"ym":5508,"##gan":5509,"necess":5510,"carniv":5511,"idol":5512,"adventur":5513,"cuz":5514,"condition":5515,"btw":5516,"ymca":5517,"rico":5518,"youth":5519,"mark":5520,"grunge":5521,"bucket":5522,"jeans":5523,"selfish":5524,"decorating":5525,"entertainment":5526,"desserts":5527,"buddh":5528,"alf":5529,"##ilies":5530,"families":5531,"swam":5532,"waves":5533,"salmon":5534,"image":5535,"subtit":5536,"karma":5537,"personality":5538,"firefight":5539,"praying":5540,"##oopy":5541,"responsibility":5542,"matters":5543,"nat":5544,"##usion":5545,"carpen":5546,"##umes":5547,"breast":5548,"serv":5549,"falling":5550,"auto":5551,"affairs":5552,"choices":5553,"suggestions":5554,"oooh":5555,"screen":5556,"groceries":5557,"hairdress":5558,"carpenter":5559,"zomb":5560,"invent":5561,"truth":5562,"##pel":5563,"perio":5564,"celebrity":5565,"turning":5566,"quarterback":5567,"valley":5568,"bare":5569,"ware":5570,"##lin":5571,"amount":5572,"##iff":5573,"##ological":5574,"balance":5575,"heaven":5576,"keyboard":5577,"diabetic":5578,"malt":5579,"symph":5580,"sunsets":5581,"triathl":5582,"gourmet":5583,"sooth":5584,"dew":5585,"trout":5586,"shortest":5587,"saved":5588,"topic":5589,"##umba":5590,"provide":5591,"quality":5592,"ethnic":5593,"tube":5594,"##life":5595,"##gent":5596,"##gum":5597,"##vi":5598,"lic":5599,"notice":5600,"argent":5601,"unif":5602,"levine":5603,"bubblegum":5604,"lindsey":5605,"mirror":5606,"hummus":5607,"1st":5608,"ber":5609,"lit":5610,"alger":5611,"cous":5612,"editor":5613,"picking":5614,"##minal":5615,"empire":5616,"nickname":5617,"muggers":5618,"ankle":5619,"ga":5620,"hat":5621,"##lla":5622,"force":5623,"enter":5624,"british":5625,"mmmm":5626,"fluently":5627,"cudd":5628,"shepherd":5629,"##ders":5630,"##ffect":5631,"stage":5632,"fairy":5633,"chose":5634,"##amb":5635,"coun":5636,"puts":5637,"##rolled":5638,"geology":5639,"terrier":5640,"ferrell":5641,"##rass":5642,"##how":5643,"liking":5644,"client":5645,"##istics":5646,"standing":5647,"jean":5648,"produce":5649,"unicorns":5650,"mermaids":5651,"csi":5652,"administ":5653,"accomplish":5654,"copperfield":5655,"65":5656,"capt":5657,"rp":5658,"##ns":5659,"##spel":5660,"##lights":5661,"welf":5662,"gospel":5663,"kidd":5664,"diam":5665,"childrens":5666,"deli":5667,"collie":5668,"management":5669,"challenge":5670,"surrounded":5671,"traditional":5672,"gaga":5673,"welfare":5674,"##under":5675,"##eapp":5676,"coord":5677,"spots":5678,"clutter":5679,"diabetes":5680,"pineapp":5681,"pharmacist":5682,"episode":5683,"xbox":5684,"spice":5685,"arr":5686,"##assy":5687,"lege":5688,"maga":5689,"chanel":5690,"issue":5691,"econ":5692,"records":5693,"patterns":5694,"bite":5695,"lens":5696,"whos":5697,"##enna":5698,"stren":5699,"coco":5700,"allie":5701,"watches":5702,"syrup":5703,"boxes":5704,"entertaining":5705,"rejects":5706,"soldier":5707,"gathering":5708,"frosting":5709,"algeria":5710,"tat":5711,"##ris":5712,"##kward":5713,"##atra":5714,"whether":5715,"areas":5716,"onions":5717,"shar":5718,"awkward":5719,"built":5720,"uns":5721,"statement":5722,"programs":5723,"edged":5724,"killer":5725,"assume":5726,"##coming":5727,"customers":5728,"1984":5729,"arcade":5730,"stanford":5731,"nicke":5732,"sinatra":5733,"cy":5734,"dub":5735,"pom":5736,"##jud":5737,"inform":5738,"hire":5739,"prejud":5740,"hometown":5741,"feelings":5742,"##ailable":5743,"humans":5744,"nyu":5745,"meditate":5746,"downtown":5747,"cheesy":5748,"eclipse":5749,"prejudice":5750,"hbu":5751,"zumba":5752,"stare":5753,"##beat":5754,"chem":5755,"graduation":5756,"starving":5757,"demanding":5758,"orchest":5759,"bff":5760,"kings":5761,"##kers":5762,"##algia":5763,"sharing":5764,"grading":5765,"craf":5766,"teams":5767,"hits":5768,"talked":5769,"annoyed":5770,"easter":5771,"bench":5772,"##rupt":5773,"double":5774,"effect":5775,"pors":5776,"##lers":5777,"##ita":5778,"##stones":5779,"droopy":5780,"drawings":5781,"depression":5782,"discovery":5783,"weapons":5784,"porsche":5785,"beha":5786,"atm":5787,"actual":5788,"nurses":5789,"confidence":5790,"##keeper":5791,"niag":5792,"36":5793,"bree":5794,"ew":5795,"hp":5796,"ign":5797,"loose":5798,"toky":5799,"ambit":5800,"seashe":5801,"humane":5802,"titanic":5803,"pediat":5804,"uniform":5805,"tokyo":5806,"pediatric":5807,"bent":5808,"mach":5809,"##arts":5810,"tight":5811,"relief":5812,"owe":5813,"gigs":5814,"website":5815,"pyram":5816,"beadwork":5817,"information":5818,"bentley":5819,"dab":5820,"##edictorian":5821,"blah":5822,"beagle":5823,"vegans":5824,"snugg":5825,"photo":5826,"simpl":5827,"orioles":5828,"packages":5829,"explain":5830,"cheaper":5831,"taxes":5832,"valedictorian":5833,"embar":5834,"multiple":5835,"snorkeling":5836,"kiddos":5837,"500":5838,"##kin":5839,"##50":5840,"playlist":5841,"##igrated":5842,"arri":5843,"##athers":5844,"hotdog":5845,"peta":5846,"conscious":5847,"window":5848,"##well":5849,"breeds":5850,"smoothie":5851,"firefighter":5852,"fra":5853,"##cing":5854,"##word":5855,"liber":5856,"suits":5857,"compared":5858,"afterwards":5859,"sciences":5860,"vienna":5861,"birthdays":5862,"hamburger":5863,"celebrate":5864,"bella":5865,"albert":5866,"ranger":5867,"##rate":5868,"thirty":5869,"##ste":5870,"outfit":5871,"willing":5872,"brush":5873,"convent":5874,"medal":5875,"dining":5876,"blogs":5877,"prepare":5878,"particularly":5879,"retrievers":5880,"koi":5881,"combination":5882,"development":5883,"eagle":5884,"exploring":5885,"aquariums":5886,"bitcoin":5887,"buddhist":5888,"alfred":5889,"iam":5890,"peach":5891,"wise":5892,"chai":5893,"##ents":5894,"##ential":5895,"##ineers":5896,"backst":5897,"flint":5898,"content":5899,"pita":5900,"tailg":5901,"##eranian":5902,"muscles":5903,"pomeranian":5904,"2nd":5905,"flex":5906,"gall":5907,"push":5908,"##ties":5909,"players":5910,"concent":5911,"volcan":5912,"seasons":5913,"report":5914,"strength":5915,"dc":5916,"hamp":5917,"analy":5918,"shades":5919,"plumber":5920,"##orns":5921,"contest":5922,"##shire":5923,"democ":5924,"pursue":5925,"##irable":5926,"landscapes":5927,"vitamin":5928,"symphony":5929,"rays":5930,"##aut":5931,"##ara":5932,"knock":5933,"##soci":5934,"marines":5935,"happily":5936,"vision":5937,"surfer":5938,"clubbing":5939,"rule":5940,"empty":5941,"galact":5942,"jasper":5943,"indoor":5944,"clarinet":5945,"astronaut":5946,"services":5947,"est":5948,"santa":5949,"thumb":5950,"##llig":5951,"wher":5952,"tiki":5953,"themselves":5954,"esp":5955,"boiled":5956,"swell":5957,"10th":5958,"katie":5959,"regularly":5960,"introvert":5961,"farts":5962,"intellig":5963,"waste":5964,"subtitles":5965,"pyramids":5966,"cind":5967,"dak":5968,"lumber":5969,"##crib":5970,"tip":5971,"smith":5972,"brave":5973,"filming":5974,"leader":5975,"attracted":5976,"jogging":5977,"elderly":5978,"42":5979,"##outh":5980,"harsh":5981,"paran":5982,"finds":5983,"ease":5984,"curious":5985,"jamming":5986,"collies":5987,"steve":5988,"scouts":5989,"ken":5990,"##ras":5991,"##ho":5992,"theme":5993,"goodby":5994,"##urt":5995,"noah":5996,"##aren":5997,"flight":5998,"babysitting":5999,"##omyalgia":6000,"views":6001,"kissed":6002,"##ibromyalgia":6003,"warehouse":6004,"nickel":6005,"embarrass":6006,"ebooks":6007,"lin":6008,"pers":6009,"wre":6010,"##mit":6011,"##ole":6012,"info":6013,"##ution":6014,"hiring":6015,"plain":6016,"mario":6017,"bulls":6018,"gla":6019,"impala":6020,"ears":6021,"outdoorsy":6022,"international":6023,"woodstock":6024,"meditation":6025,"olive":6026,"commitment":6027,"wore":6028,"##will":6029,"note":6030,"goodwill":6031,"aware":6032,"blan":6033,"improve":6034,"guitars":6035,"##flies":6036,"lights":6037,"mechan":6038,"butterflies":6039,"wrestle":6040,"scenes":6041,"typically":6042,"situations":6043,"felix":6044,"##offs":6045,"whistle":6046,"por":6047,"tack":6048,"uc":6049,"##bly":6050,"hay":6051,"cob":6052,"##oli":6053,"coupon":6054,"excl":6055,"access":6056,"patience":6057,"considering":6058,"toddler":6059,"mortal":6060,"brewery":6061,"festival":6062,"mentioned":6063,"apologize":6064,"keto":6065,"daniels":6066,"autobiographies":6067,"minimum":6068,"hairdresser":6069,"hampshire":6070,"jag":6071,"beside":6072,"admirable":6073,"combat":6074,"album":6075,"jessica":6076,"affected":6077,"##worth":6078,"liberal":6079,"goodbye":6080,"38":6081,"doors":6082,"shif":6083,"musicals":6084,"meetings":6085,"greenhouse":6086,"companion":6087,"##backer":6088,"menu":6089,"linebacker":6090,"celt":6091,"fibromyalgia":6092,"gain":6093,"##ppy":6094,"interact":6095,"aged":6096,"speckles":6097,"videog":6098,"barbies":6099,"luis":6100,"trails":6101,"surprise":6102,"cosmet":6103,"antiques":6104,"kicked":6105,"tahoe":6106,"2pac":6107,"kra":6108,"ontar":6109,"timber":6110,"fran":6111,"##aped":6112,"highlights":6113,"breaking":6114,"wears":6115,"trend":6116,"foreman":6117,"cryst":6118,"airplane":6119,"occupation":6120,"battlest":6121,"maiden":6122,"sleeve":6123,"democr":6124,"ontario":6125,"battlestar":6126,"##bre":6127,"##oner":6128,"web":6129,"weld":6130,"chains":6131,"beagles":6132,"waiter":6133,"yelling":6134,"windy":6135,"available":6136,"communist":6137,"involve":6138,"mermaid":6139,"opportunity":6140,"8th":6141,"dull":6142,"nc":6143,"tues":6144,"##oops":6145,"reads":6146,"##ilton":6147,"swing":6148,"##anced":6149,"apps":6150,"monkey":6151,"disag":6152,"wednes":6153,"hamilton":6154,"eyebr":6155,"involves":6156,"vikings":6157,"sausage":6158,"adventurous":6159,"argentina":6160,"dakota":6161,"wednesday":6162,"oz":6163,"wid":6164,"##ya":6165,"##inting":6166,"whew":6167,"##sty":6168,"haven":6169,"lovers":6170,"sore":6171,"somebody":6172,"funeral":6173,"nowh":6174,"carl":6175,"relaxed":6176,"wildlife":6177,"promoted":6178,"grilling":6179,"pediatrician":6180,"gables":6181,"mate":6182,"##ox":6183,"shoe":6184,"award":6185,"gran":6186,"staring":6187,"hitting":6188,"costumes":6189,"medication":6190,"anxious":6191,"jerky":6192,"orchestra":6193,"44":6194,"cul":6195,"rena":6196,"##cl":6197,"##foot":6198,"thai":6199,"##ndred":6200,"loans":6201,"##fted":6202,"##issance":6203,"maids":6204,"hundred":6205,"buildings":6206,"frequ":6207,"transition":6208,"celebration":6209,"breathe":6210,"despite":6211,"barefoot":6212,"soothing":6213,"ambitious":6214,"culinary":6215,"renaissance":6216,"mouth":6217,"rat":6218,"rab":6219,"##elf":6220,"##die":6221,"##wife":6222,"##eroy":6223,"##llas":6224,"##aris":6225,"stream":6226,"code":6227,"price":6228,"##ipment":6229,"teap":6230,"leon":6231,"disg":6232,"sells":6233,"sitcom":6234,"resp":6235,"supportive":6236,"lifted":6237,"ferraris":6238,"morty":6239,"naps":6240,"disability":6241,"spoiled":6242,"equipment":6243,"websites":6244,"ai":6245,"dash":6246,"md":6247,"sis":6248,"sket":6249,"##verted":6250,"interview":6251,"husbands":6252,"lettu":6253,"rapt":6254,"inspire":6255,"naw":6256,"preschool":6257,"formal":6258,"proper":6259,"require":6260,"batman":6261,"struggling":6262,"hiding":6263,"article":6264,"chemist":6265,"lettuce":6266,"od":6267,"oops":6268,"range":6269,"##aw":6270,"##sung":6271,"hall":6272,"##etic":6273,"stairs":6274,"shed":6275,"mob":6276,"manning":6277,"unp":6278,"cares":6279,"perfor":6280,"treating":6281,"dieting":6282,"emerg":6283,"fields":6284,"patrol":6285,"fridays":6286,"samsung":6287,"strawberry":6288,"dorms":6289,"vampires":6290,"benefits":6291,"indoors":6292,"administration":6293,"intelligent":6294,"glaci":6295,"nicer":6296,"##gien":6297,"##ja":6298,"##fall":6299,"begin":6300,"stre":6301,"horr":6302,"companies":6303,"pitch":6304,"crossword":6305,"hygien":6306,"continue":6307,"flintstones":6308,"43":6309,"gur":6310,"pure":6311,"rats":6312,"wra":6313,"mel":6314,"covers":6315,"scul":6316,"skier":6317,"##ahol":6318,"treats":6319,"remote":6320,"freaking":6321,"jeff":6322,"distrib":6323,"landing":6324,"adoption":6325,"burrito":6326,"damage":6327,"thriller":6328,"triathlons":6329,"crafting":6330,"guru":6331,"umm":6332,"thorns":6333,"##une":6334,"##umn":6335,"swims":6336,"poems":6337,"letting":6338,"stops":6339,"hitch":6340,"penny":6341,"denmark":6342,"##cuse":6343,"pageant":6344,"injury":6345,"diamond":6346,"pineapple":6347,"dread":6348,"hoop":6349,"vanc":6350,"##ouver":6351,"##erable":6352,"##ora":6353,"##sters":6354,"chick":6355,"coats":6356,"joking":6357,"lesson":6358,"portra":6359,"direct":6360,"miley":6361,"merna":6362,"limit":6363,"employment":6364,"semi":6365,"vancouver":6366,"cit":6367,"nba":6368,"oak":6369,"ug":6370,"viny":6371,"##zania":6372,"##pop":6373,"##ership":6374,"stamp":6375,"workers":6376,"hills":6377,"badly":6378,"missou":6379,"##fuse":6380,"boxers":6381,"transport":6382,"##oved":6383,"cuddle":6384,"tanzania":6385,"dolphins":6386,"ip":6387,"wit":6388,"##di":6389,"onion":6390,"moments":6391,"wished":6392,"flir":6393,"realize":6394,"pastime":6395,"dealer":6396,"pencil":6397,"labs":6398,"network":6399,"posse":6400,"independ":6401,"nanette":6402,"cheetahs":6403,"backstreet":6404,"bones":6405,"fet":6406,"pics":6407,"robb":6408,"loll":6409,"##iser":6410,"stone":6411,"stains":6412,"butt":6413,"##ados":6414,"maddie":6415,"magical":6416,"nerves":6417,"expert":6418,"patient":6419,"technically":6420,"obsess":6421,"blogger":6422,"eighteen":6423,"grandsons":6424,"styles":6425,"nationals":6426,"document":6427,"purchase":6428,"pantry":6429,"rollerblading":6430,"disagree":6431,"nowhere":6432,"fool":6433,"witch":6434,"wealthy":6435,"##uing":6436,"##lands":6437,"##yy":6438,"##fly":6439,"##ening":6440,"##racuse":6441,"mul":6442,"retires":6443,"recru":6444,"##iva":6445,"syracuse":6446,"explains":6447,"picnic":6448,"delivery":6449,"tarot":6450,"homeschooled":6451,"bone":6452,"ment":6453,"rage":6454,"##ex":6455,"##stop":6456,"##isk":6457,"alike":6458,"##isham":6459,"uphol":6460,"severe":6461,"hardc":6462,"grisham":6463,"bug":6464,"##aching":6465,"purses":6466,"sunfl":6467,"sunfish":6468,"markets":6469,"disappointed":6470,"unsure":6471,"f1":6472,"hiked":6473,"didn":6474,"agit":6475,"driven":6476,"joint":6477,"watercol":6478,"attic":6479,"deadbeat":6480,"##ophone":6481,"travelled":6482,"sucker":6483,"suburban":6484,"example":6485,"encyclopedias":6486,"opportunities":6487,"participate":6488,"wheres":6489,"600":6490,"cuba":6491,"pound":6492,"patt":6493,"##ators":6494,"andro":6495,"fits":6496,"cowboy":6497,"cuc":6498,"signific":6499,"fortune":6500,"shallow":6501,"weigh":6502,"##ria":6503,"thankful":6504,"sweaters":6505,"socialize":6506,"northern":6507,"joining":6508,"honeymo":6509,"queens":6510,"cheerleading":6511,"pageants":6512,"miserable":6513,"deserve":6514,"reviews":6515,"niagra":6516,"##aholic":6517,"hitchh":6518,"honeymoon":6519,"bach":6520,"fright":6521,"jar":6522,"##cut":6523,"log":6524,"ween":6525,"clay":6526,"betting":6527,"flat":6528,"donuts":6529,"contra":6530,"forens":6531,"packs":6532,"promise":6533,"throwing":6534,"unicycle":6535,"arabic":6536,"seashells":6537,"binder":6538,"tale":6539,"ww":6540,"##otions":6541,"stret":6542,"surely":6543,"basic":6544,"starts":6545,"biography":6546,"texting":6547,"sticks":6548,"june":6549,"version":6550,"crowded":6551,"fulfilling":6552,"puff":6553,"punch":6554,"rag":6555,"victorian":6556,"##yard":6557,"##yton":6558,"peyton":6559,"backyard":6560,"string":6561,"forgetful":6562,"barbados":6563,"pipe":6564,"##aaaa":6565,"2016":6566,"teenager":6567,"##urally":6568,"naturally":6569,"lumberjack":6570,"shifts":6571,"tuesday":6572,"53":6573,"borrow":6574,"cast":6575,"kpop":6576,"rame":6577,"##ges":6578,"##orical":6579,"haul":6580,"lions":6581,"##aries":6582,"harvey":6583,"consuming":6584,"sickness":6585,"historical":6586,"promotion":6587,"aspire":6588,"savage":6589,"geocache":6590,"rainbows":6591,"introduced":6592,"period":6593,"ramen":6594,"soo":6595,"##hare":6596,"dope":6597,"lock":6598,"coz":6599,"somehow":6600,"percy":6601,"timeshare":6602,"##quet":6603,"##works":6604,"fairly":6605,"128":6606,"surviv":6607,"discount":6608,"ingred":6609,"rhy":6610,"videogames":6611,"citiz":6612,"ald":6613,"biz":6614,"manta":6615,"dod":6616,"failing":6617,"abroad":6618,"allig":6619,"suv":6620,"rode":6621,"county":6622,"unlike":6623,"minds":6624,"pastor":6625,"yorkie":6626,"deals":6627,"##sonian":6628,"pieces":6629,"talents":6630,"barbeque":6631,"palm":6632,"junior":6633,"gutters":6634,"lenses":6635,"smithsonian":6636,"disgusting":6637,"loner":6638,"ppl":6639,"##rus":6640,"##dom":6641,"brow":6642,"drinker":6643,"sweat":6644,"##ivid":6645,"designs":6646,"setting":6647,"figur":6648,"cupcake":6649,"sexy":6650,"satis":6651,"gerald":6652,"trauma":6653,"cyrus":6654,"nickelback":6655,"386":6656,"celtics":6657,"upholstery":6658,"f150":6659,"significant":6660,"cub":6661,"fred":6662,"hen":6663,"oy":6664,"yrs":6665,"##ucc":6666,"##hal":6667,"##vrol":6668,"##icon":6669,"outfits":6670,"##ppucc":6671,"##ilities":6672,"rod":6673,"backwards":6674,"chevrol":6675,"final":6676,"petting":6677,"cappucc":6678,"spirited":6679,"digital":6680,"silicon":6681,"olympic":6682,"##hhh":6683,"motivated":6684,"buddies":6685,"murals":6686,"widow":6687,"sitcoms":6688,"ugly":6689,"missouri":6690,"chevrolet":6691,"pills":6692,"##rition":6693,"##tled":6694,"##ipp":6695,"##water":6696,"##ata":6697,"##rets":6698,"flow":6699,"cursive":6700,"preference":6701,"fullest":6702,"tasting":6703,"violinist":6704,"obsession":6705,"nutrition":6706,"stylist":6707,"piercing":6708,"sprite":6709,"deployed":6710,"multi":6711,"lute":6712,"##uu":6713,"##fisk":6714,"alph":6715,"hopeless":6716,"flops":6717,"retro":6718,"ravi":6719,"emotions":6720,"depot":6721,"martin":6722,"dollar":6723,"explorer":6724,"hostage":6725,"whittling":6726,"##underst":6727,"tailgate":6728,"lutefisk":6729,"ravioli":6730,"gary":6731,"lamp":6732,"mma":6733,"va":6734,"##zer":6735,"##jo":6736,"##eria":6737,"shark":6738,"spi":6739,"dogg":6740,"clock":6741,"seat":6742,"##ibles":6743,"curator":6744,"regret":6745,"lightning":6746,"expected":6747,"proofread":6748,"##ervative":6749,"parakeet":6750,"coordin":6751,"legends":6752,"raptors":6753,"70s":6754,"maker":6755,"cane":6756,"sevent":6757,"uses":6758,"##anges":6759,"tony":6760,"lease":6761,"crap":6762,"stuffed":6763,"austria":6764,"budget":6765,"tune":6766,"posts":6767,"grilled":6768,"walls":6769,"bubbles":6770,"dublin":6771,"frequently":6772,"ave":6773,"bay":6774,"emmy":6775,"##nosed":6776,"##hand":6777,"##ply":6778,"amate":6779,"##keys":6780,"placed":6781,"##obe":6782,"##ooky":6783,"##agnosed":6784,"conv":6785,"##ressive":6786,"diagnosed":6787,"housewife":6788,"stray":6789,"letter":6790,"simply":6791,"announcer":6792,"celebrities":6793,"survived":6794,"amateur":6795,"dun":6796,"leroy":6797,"##ann":6798,"##eton":6799,"sheeran":6800,"drafted":6801,"ridic":6802,"fashioned":6803,"balanced":6804,"##fying":6805,"koala":6806,"fifteen":6807,"linkin":6808,"##market":6809,"pressure":6810,"hardcore":6811,"jars":6812,"ome":6813,"woo":6814,"##rees":6815,"liar":6816,"infl":6817,"shave":6818,"chubby":6819,"greys":6820,"counting":6821,"happier":6822,"remod":6823,"bankrupt":6824,"saudi":6825,"mortician":6826,"democrat":6827,"respond":6828,"influ":6829,"remodel":6830,"pc":6831,"yr":6832,"butcher":6833,"fro":6834,"##ional":6835,"playoffs":6836,"perks":6837,"##elve":6838,"causes":6839,"eyesight":6840,"tattooed":6841,"garfield":6842,"tricks":6843,"##hicans":6844,"tablet":6845,"weightlifter":6846,"battle":6847,"gad":6848,"ille":6849,"vill":6850,"##11":6851,"habits":6852,"william":6853,"schooling":6854,"paino":6855,"##tember":6856,"slept":6857,"mode":6858,"boarding":6859,"250":6860,"collar":6861,"suburb":6862,"arabia":6863,"september":6864,"cuddling":6865,"illegal":6866,"33":6867,"duck":6868,"fathers":6869,"hind":6870,"lum":6871,"sig":6872,"islands":6873,"##arre":6874,"ties":6875,"enth":6876,"shells":6877,"##bean":6878,"##haw":6879,"troop":6880,"relative":6881,"careers":6882,"lemon":6883,"pianist":6884,"consult":6885,"sheltered":6886,"roadie":6887,"generation":6888,"stinky":6889,"surprising":6890,"rejected":6891,"statistics":6892,"krav":6893,"90":6894,"hr":6895,"karen":6896,"##pers":6897,"chronic":6898,"cock":6899,"tie":6900,"knife":6901,"homebody":6902,"groo":6903,"showing":6904,"publishers":6905,"inspiring":6906,"paperwork":6907,"2000":6908,"chemistry":6909,"nich":6910,"##ounts":6911,"whom":6912,"##iter":6913,"bey":6914,"canning":6915,"spider":6916,"##osph":6917,"##ians":6918,"hung":6919,"sweetie":6920,"given":6921,"dreamworks":6922,"contract":6923,"checking":6924,"ceo":6925,"radiohead":6926,"incredibly":6927,"mangoes":6928,"routine":6929,"wizard":6930,"daisies":6931,"carnivore":6932,"zombie":6933,"atmosph":6934,"arrive":6935,"atmosphere":6936,"cig":6937,"eff":6938,"ri":6939,"row":6940,"##con":6941,"lil":6942,"spices":6943,"spread":6944,"croc":6945,"result":6946,"humble":6947,"finger":6948,"boomer":6949,"rpg":6950,"hotdogs":6951,"glaciers":6952,"henry":6953,"bang":6954,"jum":6955,"##mare":6956,"##usive":6957,"precious":6958,"orland":6959,"bran":6960,"oldies":6961,"cheated":6962,"nightmare":6963,"bothers":6964,"camper":6965,"##venient":6966,"ending":6967,"focusing":6968,"trailer":6969,"magazines":6970,"reddit":6971,"teapots":6972,"orlando":6973,"der":6974,"kore":6975,"wet":6976,"wif":6977,"wier":6978,"knowled":6979,"adj":6980,"himself":6981,"businesses":6982,"meds":6983,"headaches":6984,"tomato":6985,"smarter":6986,"smoked":6987,"coasters":6988,"disappointing":6989,"century":6990,"employee":6991,"streets":6992,"alphabet":6993,"bomb":6994,"fears":6995,"mt":6996,"nom":6997,"tide":6998,"##ux":6999,"##ershop":7000,"goodfe":7001,"chain":7002,"dip":7003,"##ips":7004,"snaps":7005,"desire":7006,"supple":7007,"supports":7008,"experiment":7009,"bummed":7010,"signed":7011,"barbershop":7012,"saxophone":7013,"license":7014,"welding":7015,"sketch":7016,"crosswords":7017,"agitated":7018,"forensic":7019,"survivor":7020,"goodfellas":7021,"oven":7022,"tape":7023,"vent":7024,"##erling":7025,"noticed":7026,"sterling":7027,"##ushing":7028,"mum":7029,"##iah":7030,"tease":7031,"fallout":7032,"immed":7033,"storage":7034,"designed":7035,"milksh":7036,"sandy":7037,"musicians":7038,"scenery":7039,"taxi":7040,"grizz":7041,"galactica":7042,"porch":7043,"swimsuit":7044,"immedi":7045,"hrs":7046,"jet":7047,"isa":7048,"##ased":7049,"##eeee":7050,"##iever":7051,"argu":7052,"tracy":7053,"##ils":7054,"trou":7055,"higher":7056,"cramp":7057,"excuse":7058,"paints":7059,"197":7060,"obl":7061,"proced":7062,"corporate":7063,"radiology":7064,"emergency":7065,"figurines":7066,"ridiculous":7067,"cycle":7068,"leel":7069,"nood":7070,"pir":7071,"vs":7072,"##vo":7073,"##arily":7074,"inse":7075,"bean":7076,"##igans":7077,"block":7078,"bets":7079,"##lord":7080,"drivers":7081,"##erty":7082,"##nged":7083,"donna":7084,"copy":7085,"##inois":7086,"sevenfo":7087,"depending":7088,"springfield":7089,"motivation":7090,"jenkins":7091,"illinois":7092,"pitbulls":7093,"herself":7094,"summers":7095,"council":7096,"cosmetics":7097,"watercolors":7098,"avenged":7099,"enthus":7100,"leela":7101,"sevenfold":7102,"hooked":7103,"sart":7104,"##nam":7105,"##cript":7106,"##orius":7107,"inf":7108,"prog":7109,"herb":7110,"skirt":7111,"visits":7112,"monkeys":7113,"degrees":7114,"attach":7115,"sixth":7116,"##adelph":7117,"sipping":7118,"depressing":7119,"philadelph":7120,"solar":7121,"washers":7122,"risky":7123,"appliance":7124,"frustrated":7125,"flexible":7126,"sartorius":7127,"philadelphia":7128,"ax":7129,"bc":7130,"rita":7131,"##atory":7132,"##nders":7133,"likely":7134,"stea":7135,"coon":7136,"##amas":7137,"seed":7138,"actors":7139,"parlor":7140,"danced":7141,"rains":7142,"butterfly":7143,"float":7144,"encourage":7145,"breeze":7146,"hayworth":7147,"wwii":7148,"lumineers":7149,"branch":7150,"cork":7151,"messed":7152,"vn":7153,"##mint":7154,"##gets":7155,"##stick":7156,"sock":7157,"##adays":7158,"spooky":7159,"nowadays":7160,"##ization":7161,"minor":7162,"european":7163,"packers":7164,"auditioned":7165,"juggler":7166,"stirling":7167,"econom":7168,"cappuccino":7169,"corky":7170,"vnv":7171,"fill":7172,"gear":7173,"mohicans":7174,"##aster":7175,"marine":7176,"unus":7177,"finances":7178,"##phones":7179,"understood":7180,"hangout":7181,"vegetarians":7182,"fighter":7183,"turtle":7184,"circle":7185,"luc":7186,"danes":7187,"escaped":7188,"financially":7189,"threw":7190,"rub":7191,"sigh":7192,"##nies":7193,"doc":7194,"##oosing":7195,"beta":7196,"colorbl":7197,"understanding":7198,"brains":7199,"shelves":7200,"settled":7201,"hola":7202,"ferret":7203,"confusing":7204,"athletes":7205,"jackson":7206,"snakeskin":7207,"battery":7208,"suspend":7209,"cherish":7210,"leprechauns":7211,"simpler":7212,"lollip":7213,"effort":7214,"crocod":7215,"colorblind":7216,"suspenders":7217,"mons":7218,"tats":7219,"yall":7220,"##cra":7221,"shorter":7222,"##eeks":7223,"##anto":7224,"refuse":7225,"##oler":7226,"swear":7227,"intoler":7228,"impro":7229,"monster":7230,"autumn":7231,"treas":7232,"conservative":7233,"kitties":7234,"nerdy":7235,"reporter":7236,"activism":7237,"criminal":7238,"planting":7239,"requires":7240,"fifth":7241,"torn":7242,"cucumbers":7243,"monsanto":7244,"911":7245,"cap":7246,"hats":7247,"mild":7248,"num":7249,"sang":7250,"##jour":7251,"tone":7252,"olds":7253,"woah":7254,"ess":7255,"disorder":7256,"charge":7257,"acry":7258,"bearer":7259,"lifetime":7260,"ergon":7261,"returned":7262,"pillaging":7263,"analyst":7264,"granny":7265,"dodge":7266,"knowledge":7267,"ergonom":7268,"80":7269,"mates":7270,"panic":7271,"teal":7272,"##va":7273,"##eared":7274,"chores":7275,"alt":7276,"repe":7277,"dece":7278,"grace":7279,"consist":7280,"seventh":7281,"siri":7282,"chilli":7283,"tedious":7284,"pursuing":7285,"geocaching":7286,"cousin":7287,"oakville":7288,"wierd":7289,"dump":7290,"rou":7291,"wage":7292,"##itals":7293,"itself":7294,"##utical":7295,"##rigu":7296,"shade":7297,"sees":7298,"##resent":7299,"intrigu":7300,"showers":7301,"##aceutical":7302,"restored":7303,"trucker":7304,"eyed":7305,"hospitals":7306,"paps":7307,"represent":7308,"costume":7309,"organize":7310,"ruin":7311,"forgive":7312,"title":7313,"pharmaceutical":7314,"alexander":7315,"##hold":7316,"doggies":7317,"beyond":7318,"immediately":7319,"isaiah":7320,"darts":7321,"ivy":7322,"rings":7323,"thier":7324,"##enact":7325,"chairs":7326,"upon":7327,"reenact":7328,"hobbie":7329,"gravey":7330,"passing":7331,"served":7332,"resour":7333,"sunr":7334,"charities":7335,"brag":7336,"storms":7337,"specialize":7338,"message":7339,"changes":7340,"laying":7341,"fifty":7342,"daydreaming":7343,"prints":7344,"sculpt":7345,"portraits":7346,"citizen":7347,"jail":7348,"map":7349,"##oint":7350,"shots":7351,"hiya":7352,"plastic":7353,"##tha":7354,"oranges":7355,"collector":7356,"supermarket":7357,"shortstop":7358,"milo":7359,"speaks":7360,"christie":7361,"photographs":7362,"reput":7363,"colon":7364,"powerful":7365,"benefit":7366,"aquarium":7367,"roofing":7368,"labrador":7369,"bizarre":7370,"oyu":7371,"modeling":7372,"led":7373,"ot":7374,"tamp":7375,"##bra":7376,"whose":7377,"inner":7378,"worn":7379,"plot":7380,"neck":7381,"anybody":7382,"upcoming":7383,"manic":7384,"rolls":7385,"specially":7386,"divers":7387,"curry":7388,"appear":7389,"dreaming":7390,"majored":7391,"acres":7392,"cardigans":7393,"medications":7394,"linking":7395,"lying":7396,"inherited":7397,"horrid":7398,"documentaries":7399,"tampa":7400,"4th":7401,"boun":7402,"niss":7403,"##pting":7404,"compost":7405,"badmint":7406,"classroom":7407,"##ivity":7408,"gardens":7409,"cruel":7410,"meaning":7411,"profit":7412,"pinky":7413,"20s":7414,"tending":7415,"ruined":7416,"jumped":7417,"botox":7418,"critic":7419,"cobain":7420,"nissan":7421,"badminton":7422,"46":7423,"cyc":7424,"hatter":7425,"uber":7426,"##cues":7427,"##vard":7428,"##rey":7429,"coors":7430,"##eez":7431,"favorit":7432,"knowing":7433,"commend":7434,"##ummy":7435,"heroes":7436,"disease":7437,"rescues":7438,"writes":7439,"zookeeper":7440,"terribly":7441,"oreos":7442,"square":7443,"atleast":7444,"communication":7445,"linux":7446,"alligator":7447,"signing":7448,"hatteras":7449,"eww":7450,"##uce":7451,"##giving":7452,"##nded":7453,"##ete":7454,"##ompl":7455,"neg":7456,"aspect":7457,"sparks":7458,"##ishing":7459,"trooper":7460,"thanksgiving":7461,"saves":7462,"siber":7463,"cheeseburger":7464,"incompl":7465,"urinary":7466,"celebrated":7467,"testing":7468,"50k":7469,"drug":7470,"fortunately":7471,"345":7472,"captain":7473,"oblig":7474,"incomplete":7475,"cds":7476,"##free":7477,"##otam":7478,"stocks":7479,"##opotam":7480,"cla":7481,"gotti":7482,"wherever":7483,"manly":7484,"listens":7485,"tongue":7486,"calories":7487,"ideal":7488,"individ":7489,"definately":7490,"pops":7491,"holy":7492,"smelly":7493,"landlord":7494,"racquet":7495,"hippopotam":7496,"refused":7497,"geek":7498,"dabble":7499,"browsing":7500,"nomad":7501,"graveyard":7502,"hippopotamus":7503,"bry":7504,"vets":7505,"##mate":7506,"##vior":7507,"halen":7508,"shore":7509,"mud":7510,"prest":7511,"##obby":7512,"colorful":7513,"##ocked":7514,"reloc":7515,"experiences":7516,"bellied":7517,"veterinary":7518,"jimi":7519,"superheros":7520,"princeton":7521,"competitively":7522,"tricky":7523,"carrying":7524,"1986":7525,"behavior":7526,"dine":7527,"pta":7528,"##ham":7529,"lip":7530,"began":7531,"cha":7532,"##aked":7533,"outlet":7534,"todays":7535,"trash":7536,"##ango":7537,"nightly":7538,"pizzas":7539,"household":7540,"wondered":7541,"winner":7542,"##issipp":7543,"belief":7544,"mississipp":7545,"grows":7546,"yaa":7547,"steps":7548,"junkie":7549,"researching":7550,"proposed":7551,"committed":7552,"risk":7553,"downtime":7554,"academ":7555,"hygienist":7556,"android":7557,"dunno":7558,"mississippi":7559,"49":7560,"lee":7561,"patch":7562,"wing":7563,"##tales":7564,"##ndry":7565,"inhal":7566,"nighttime":7567,"freeze":7568,"dinners":7569,"controlled":7570,"laundry":7571,"handsome":7572,"fascinated":7573,"packed":7574,"fairytales":7575,"spiky":7576,"grizzlies":7577,"unusual":7578,"inhaler":7579,"data":7580,"kurt":7581,"wealth":7582,"##ovel":7583,"##ipping":7584,"##lect":7585,"cheeks":7586,"##estic":7587,"envy":7588,"telen":7589,"harvest":7590,"complet":7591,"sporting":7592,"slight":7593,"modest":7594,"productive":7595,"rejection":7596,"blessing":7597,"architecture":7598,"stews":7599,"rainbow":7600,"montana":7601,"machine":7602,"ergonomic":7603,"telenovel":7604,"bip":7605,"##zed":7606,"##tain":7607,"##enced":7608,"##adas":7609,"orders":7610,"teens":7611,"overrated":7612,"frenzy":7613,"maintain":7614,"jelly":7615,"assign":7616,"##going":7617,"aspir":7618,"performance":7619,"hyp":7620,"venison":7621,"spoken":7622,"misunderst":7623,"coworkers":7624,"##keeping":7625,"slackware":7626,"dreamed":7627,"reference":7628,"vinyl":7629,"puffs":7630,"rouge":7631,"ebook":7632,"jay":7633,"lap":7634,"mama":7635,"##zu":7636,"##ued":7637,"##llen":7638,"stations":7639,"associ":7640,"reinc":7641,"mardu":7642,"grandd":7643,"##eased":7644,"yorker":7645,"hurry":7646,"autistic":7647,"dealership":7648,"humid":7649,"carts":7650,"inspires":7651,"cruz":7652,"micro":7653,"request":7654,"required":7655,"zebra":7656,"brewing":7657,"baldness":7658,"greeting":7659,"applying":7660,"grasshoppers":7661,"necessary":7662,"tatoos":7663,"eyebrow":7664,"essential":7665,"cyclist":7666,"reincarn":7667,"marduk":7668,"bucks":7669,"dated":7670,"ry":7671,"session":7672,"##iards":7673,"##fs":7674,"lies":7675,"fame":7676,"spin":7677,"upper":7678,"arrow":7679,"cookbooks":7680,"agg":7681,"showed":7682,"billiards":7683,"disappointment":7684,"thrillers":7685,"jenny":7686,"kicking":7687,"beetles":7688,"academy":7689,"jake":7690,"jose":7691,"##ji":7692,"faces":7693,"##cky":7694,"prem":7695,"##ogue":7696,"sail":7697,"overnight":7698,"flown":7699,"saliva":7700,"poker":7701,"##aho":7702,"idaho":7703,"southwest":7704,"##ormal":7705,"organizing":7706,"superheroes":7707,"prepared":7708,"developed":7709,"protective":7710,"gifts":7711,"vocal":7712,"paranormal":7713,"transportation":7714,"martinis":7715,"frozen":7716,"village":7717,"noodles":7718,"lollipops":7719,"commendable":7720,"rash":7721,"und":7722,"##rating":7723,"##lets":7724,"##cce":7725,"dozen":7726,"##itement":7727,"##ther":7728,"succe":7729,"twelve":7730,"complic":7731,"flicks":7732,"tyson":7733,"##getic":7734,"disci":7735,"excitement":7736,"rescu":7737,"degras":7738,"##leton":7739,"slice":7740,"forecl":7741,"cups":7742,"adventist":7743,"energetic":7744,"millions":7745,"##fficient":7746,"cuisines":7747,"source":7748,"crashes":7749,"hitchhi":7750,"milkshakes":7751,"succeed":7752,"degrasse":7753,"laughter":7754,"ps":7755,"pow":7756,"wi":7757,"##dles":7758,"##atha":7759,"##itas":7760,"##idge":7761,"##alas":7762,"##olas":7763,"##igious":7764,"newest":7765,"agatha":7766,"roast":7767,"release":7768,"shopper":7769,"crabs":7770,"differently":7771,"casual":7772,"pitt":7773,"subjects":7774,"olympian":7775,"bonjour":7776,"bait":7777,"diesel":7778,"gallery":7779,"contractor":7780,"gadgets":7781,"nicholas":7782,"siberian":7783,"prestigious":7784,"##sed":7785,"##ining":7786,"gresh":7787,"rehear":7788,"##ulu":7789,"##bec":7790,"harvard":7791,"score":7792,"crunch":7793,"barn":7794,"barking":7795,"imagination":7796,"perfection":7797,"distant":7798,"ticket":7799,"quebec":7800,"squats":7801,"bottle":7802,"spiritual":7803,"loads":7804,"bitcoins":7805,"advise":7806,"slacker":7807,"geez":7808,"subscrib":7809,"volcanoes":7810,"ingredients":7811,"##craft":7812,"gresham":7813,"cay":7814,"fans":7815,"sane":7816,"##onds":7817,"##cci":7818,"##esth":7819,"sof":7820,"welder":7821,"heh":7822,"fail":7823,"shi":7824,"shake":7825,"gucci":7826,"convenient":7827,"petitions":7828,"handica":7829,"candies":7830,"kites":7831,"accidentally":7832,"baton":7833,"dedicated":7834,"immigrated":7835,"violent":7836,"##stein":7837,"concentrate":7838,"consultant":7839,"december":7840,"racquetball":7841,"mig":7842,"ta":7843,"##unts":7844,"noises":7845,"regg":7846,"##soft":7847,"newly":7848,"wishing":7849,"sings":7850,"haircut":7851,"hass":7852,"unable":7853,"donkey":7854,"confined":7855,"juicy":7856,"hipster":7857,"delivered":7858,"2004":7859,"biggie":7860,"banking":7861,"shepherds":7862,"arrange":7863,"resources":7864,"4am":7865,"dough":7866,"giver":7867,"ms":7868,"powers":7869,"##itter":7870,"##aro":7871,"##icide":7872,"spark":7873,"nicely":7874,"marvel":7875,"craz":7876,"imposs":7877,"sitter":7878,"cleats":7879,"stopping":7880,"addition":7881,"paw":7882,"radar":7883,"ahhh":7884,"limits":7885,"furry":7886,"stealing":7887,"federal":7888,"grounded":7889,"telecomm":7890,"labradors":7891,"stretch":7892,"impossible":7893,"file":7894,"ling":7895,"mit":7896,"roles":7897,"ske":7898,"tub":7899,"ant":7900,"previously":7901,"wins":7902,"excerc":7903,"smaller":7904,"location":7905,"tallest":7906,"earned":7907,"rooms":7908,"acqu":7909,"enders":7910,"nerve":7911,"prayer":7912,"psycho":7913,"deeply":7914,"comedians":7915,"discuss":7916,"venue":7917,"flavored":7918,"injured":7919,"4000":7920,"maltese":7921,"exclusive":7922,"reputation":7923,"telenovela":7924,"excercise":7925,"lamb":7926,"peas":7927,"poop":7928,"rivers":7929,"##nics":7930,"##natural":7931,"##tra":7932,"toss":7933,"##urb":7934,"replace":7935,"harm":7936,"compare":7937,"supernatural":7938,"mission":7939,"prior":7940,"motion":7941,"wilder":7942,"distances":7943,"dropping":7944,"picnics":7945,"babysitter":7946,"refurb":7947,"bonus":7948,"duh":7949,"recovery":7950,"wizards":7951,"emotional":7952,"beginning":7953,"robbery":7954,"jumping":7955,"28":7956,"ds":7957,"fence":7958,"poo":7959,"rot":7960,"rig":7961,"##val":7962,"##ativity":7963,"libre":7964,"likewise":7965,"shelf":7966,"##ister":7967,"unit":7968,"secrets":7969,"pastries":7970,"tests":7971,"wallet":7972,"fully":7973,"bunnies":7974,"employees":7975,"answering":7976,"destination":7977,"opinions":7978,"threat":7979,"separ":7980,"pups":7981,"grasshopper":7982,"blankets":7983,"economics":7984,"completed":7985,"subscribers":7986,"gassy":7987,"hust":7988,"ike":7989,"ranc":7990,"##rom":7991,"##worm":7992,"domin":7993,"solo":7994,"##erella":7995,"rev":7996,"bookkeeping":7997,"bookworm":7998,"hairsty":7999,"highway":8000,"##temp":8001,"##gging":8002,"poem":8003,"americ":8004,"bringing":8005,"honorable":8006,"entry":8007,"buds":8008,"##oooooo":8009,"gamblers":8010,"debut":8011,"murder":8012,"wiccan":8013,"tasks":8014,"cinderella":8015,"mechanics":8016,"crystals":8017,"lipstick":8018,"rancid":8019,"dm":8020,"dirt":8021,"loosing":8022,"tick":8023,"zone":8024,"##rict":8025,"##gic":8026,"##hatt":8027,"inches":8028,"##eno":8029,"forty":8030,"outgoing":8031,"repl":8032,"manhatt":8033,"script":8034,"carefree":8035,"flag":8036,"veganism":8037,"monit":8038,"greens":8039,"##atty":8040,"collected":8041,"polite":8042,"bowled":8043,"assuming":8044,"windows":8045,"laser":8046,"grandparent":8047,"garlic":8048,"introverted":8049,"dedication":8050,"embarrassing":8051,"rashad":8052,"dmv":8053,"manhattan":8054,"cooper":8055,"wwe":8056,"##any":8057,"thru":8058,"##ails":8059,"removed":8060,"syfy":8061,"detest":8062,"baths":8063,"electrician":8064,"inherit":8065,"hindu":8066,"##ointment":8067,"hitchhiking":8068,"aint":8069,"bouncer":8070,"cer":8071,"ding":8072,"fb":8073,"masc":8074,"maps":8075,"ovo":8076,"sassy":8077,"yah":8078,"##odo":8079,"amb":8080,"forced":8081,"ants":8082,"kidna":8083,"cris":8084,"camer":8085,"freetime":8086,"assess":8087,"telemar":8088,"cardio":8089,"expand":8090,"hippos":8091,"pretending":8092,"offered":8093,"tackles":8094,"distribut":8095,"coordinator":8096,"supplement":8097,"ryan":8098,"powder":8099,"telemarke":8100,"aug":8101,"iow":8102,"komb":8103,"##cat":8104,"toward":8105,"##estern":8106,"soph":8107,"faves":8108,"sheep":8109,"calms":8110,"believer":8111,"ceme":8112,"cops":8113,"oddly":8114,"mutt":8115,"applied":8116,"clueless":8117,"biscuits":8118,"sharp":8119,"sunrise":8120,"kombat":8121,"aster":8122,"jeep":8123,"ki":8124,"tear":8125,"amy":8126,"amen":8127,"##station":8128,"##ril":8129,"##riate":8130,"##riac":8131,"##unic":8132,"##ante":8133,"playstation":8134,"##gender":8135,"clums":8136,"cliff":8137,"startup":8138,"flirt":8139,"##ondriac":8140,"stuffs":8141,"guitarist":8142,"delight":8143,"pits":8144,"cartographer":8145,"technical":8146,"##ochondriac":8147,"transgender":8148,"posting":8149,"stationed":8150,"omar":8151,"clearly":8152,"further":8153,"destiny":8154,"crackers":8155,"wicked":8156,"##ropriate":8157,"intriguing":8158,"hypochondriac":8159,"premature":8160,"telecommunic":8161,"clumsy":8162,"bust":8163,"ets":8164,"mand":8165,"sally":8166,"tn":8167,"u2":8168,"##nor":8169,"##lah":8170,"##bage":8171,"##mel":8172,"##ision":8173,"heel":8174,"neil":8175,"abby":8176,"suicide":8177,"##olo":8178,"##olar":8179,"semes":8180,"oklah":8181,"connor":8182,"diets":8183,"walker":8184,"sixteen":8185,"corg":8186,"literal":8187,"ordered":8188,"terrifying":8189,"solve":8190,"freelanc":8191,"##build":8192,"flooding":8193,"bipolar":8194,"microsoft":8195,"semester":8196,"oklahoma":8197,"bound":8198,"hog":8199,"rc":8200,"##aff":8201,"##wag":8202,"toler":8203,"##orus":8204,"lilies":8205,"inch":8206,"fac":8207,"faked":8208,"chorus":8209,"rept":8210,"##ppings":8211,"armp":8212,"##acking":8213,"marley":8214,"##llect":8215,"shoulders":8216,"##ogn":8217,"keeper":8218,"curl":8219,"biological":8220,"seller":8221,"laws":8222,"dancers":8223,"closely":8224,"volks":8225,"fighters":8226,"##ficial":8227,"labor":8228,"darker":8229,"wrestler":8230,"tourist":8231,"independent":8232,"sunflowers":8233,"volkswag":8234,"ducks":8235,"lance":8236,"mint":8237,"sets":8238,"dom":8239,"doin":8240,"dona":8241,"haired":8242,"##chy":8243,"rece":8244,"section":8245,"brut":8246,"spect":8247,"relaxes":8248,"gardener":8249,"meter":8250,"colder":8251,"roofer":8252,"cases":8253,"impression":8254,"ironically":8255,"physically":8256,"wasting":8257,"summert":8258,"remotely":8259,"donald":8260,"dv":8261,"xd":8262,"##ially":8263,"##ensive":8264,"anger":8265,"##opath":8266,"ability":8267,"##eeze":8268,"coolest":8269,"knives":8270,"comment":8271,"reduit":8272,"understands":8273,"30k":8274,"hippy":8275,"eighties":8276,"spirits":8277,"pretenders":8278,"maxed":8279,"flirting":8280,"monitors":8281,"fle":8282,"korn":8283,"vest":8284,"waters":8285,"##lics":8286,"##juring":8287,"##otas":8288,"chir":8289,"##ified":8290,"blo":8291,"conjuring":8292,"levin":8293,"##ission":8294,"hole":8295,"boxing":8296,"shyness":8297,"journalism":8298,"property":8299,"avoiding":8300,"expecting":8301,"laptops":8302,"critical":8303,"snuggle":8304,"enthusi":8305,"acrylics":8306,"reggae":8307,"egy":8308,"ira":8309,"lbs":8310,"piss":8311,"paced":8312,"rer":8313,"samp":8314,"##uries":8315,"##cream":8316,"##fus":8317,"##ester":8318,"tim":8319,"sue":8320,"catfish":8321,"maria":8322,"guest":8323,"counter":8324,"classically":8325,"bond":8326,"appointment":8327,"icecream":8328,"pickle":8329,"##ronics":8330,"apartments":8331,"208":8332,"##aneous":8333,"electronics":8334,"present":8335,"physician":8336,"##mokers":8337,"cafes":8338,"steven":8339,"massage":8340,"muscle":8341,"deployments":8342,"alfredo":8343,"chainsmokers":8344,"telecommunications":8345,"egypt":8346,"iraq":8347,"9th":8348,"feast":8349,"gm":8350,"native":8351,"##some":8352,"##dies":8353,"##bling":8354,"##ribe":8355,"##iro":8356,"##antage":8357,"sum":8358,"awsome":8359,"kindle":8360,"defe":8361,"##osing":8362,"##iber":8363,"wah":8364,"impact":8365,"excess":8366,"fanatic":8367,"ponder":8368,"1000":8369,"fourth":8370,"legit":8371,"archae":8372,"lux":8373,"2000s":8374,"deniro":8375,"suggestion":8376,"qualify":8377,"locker":8378,"wifes":8379,"troubles":8380,"intolerant":8381,"hassle":8382,"debutante":8383,"coo":8384,"gmo":8385,"jeez":8386,"##hill":8387,"##press":8388,"sod":8389,"spilled":8390,"offsh":8391,"downhill":8392,"medi":8393,"pete":8394,"##aurus":8395,"creativity":8396,"##rock":8397,"edge":8398,"topics":8399,"workouts":8400,"iphones":8401,"chillin":8402,"smoothies":8403,"demand":8404,"judgement":8405,"##check":8406,"lyr":8407,"juggle":8408,"thierry":8409,"cayden":8410,"skeleton":8411,"distributor":8412,"offshore":8413,"71":8414,"cage":8415,"dum":8416,"lower":8417,"mice":8418,"os":8419,"oct":8420,"rum":8421,"rated":8422,"sens":8423,"##illy":8424,"##pm":8425,"among":8426,"neur":8427,"enrolled":8428,"maroon":8429,"hound":8430,"skilled":8431,"passive":8432,"recogn":8433,"soundtra":8434,"hunts":8435,"evenings":8436,"decades":8437,"brah":8438,"eleph":8439,"impressions":8440,"edit":8441,"invited":8442,"messes":8443,"marrying":8444,"developing":8445,"stylish":8446,"crowds":8447,"wreck":8448,"kidnapped":8449,"dw":8450,"gel":8451,"naught":8452,"##born":8453,"##rel":8454,"tomm":8455,"##stone":8456,"belly":8457,"hel":8458,"justice":8459,"goats":8460,"##arett":8461,"livestock":8462,"##ppel":8463,"comfy":8464,"##sole":8465,"console":8466,"redo":8467,"leash":8468,"##berry":8469,"healthcare":8470,"bark":8471,"april":8472,"midnight":8473,"##tual":8474,"repairs":8475,"legally":8476,"accidents":8477,"lifes":8478,"appreciated":8479,"coaching":8480,"jerk":8481,"virtual":8482,"brunette":8483,"koalas":8484,"connections":8485,"banana":8486,"intellect":8487,"cigarett":8488,"iowa":8489,"cine":8490,"pn":8491,"##ray":8492,"##roph":8493,"##ko":8494,"gods":8495,"exh":8496,"carib":8497,"##osh":8498,"classy":8499,"petty":8500,"dances":8501,"pickled":8502,"30s":8503,"energ":8504,"racer":8505,"ought":8506,"carbon":8507,"documentary":8508,"articles":8509,"accomplishment":8510,"rhyme":8511,"foreclosed":8512,"cameras":8513,"caribbean":8514,"37":8515,"gn":8516,"mra":8517,"pam":8518,"rica":8519,"##pline":8520,"##antha":8521,"hav":8522,"becky":8523,"greed":8524,"##imid":8525,"exten":8526,"bros":8527,"##aste":8528,"intimid":8529,"cheat":8530,"concer":8531,"genji":8532,"volunteers":8533,"throughout":8534,"remain":8535,"##pective":8536,"prayers":8537,"tutoring":8538,"samantha":8539,"developer":8540,"thursdays":8541,"material":8542,"mangos":8543,"perspective":8544,"sooo":8545,"surprisingly":8546,"discipline":8547,"telemarketer":8548,"mraz":8549,"avett":8550,"fuel":8551,"rip":8552,"seal":8553,"##rr":8554,"##look":8555,"##lake":8556,"##inter":8557,"tower":8558,"toppings":8559,"whil":8560,"abuse":8561,"pros":8562,"##udes":8563,"guide":8564,"artwork":8565,"scand":8566,"hurting":8567,"decade":8568,"pugs":8569,"magn":8570,"secondary":8571,"cabins":8572,"encount":8573,"trades":8574,"2017":8575,"janet":8576,"route":8577,"blowing":8578,"timberlake":8579,"mobile":8580,"ipod":8581,"omelet":8582,"tabletop":8583,"sirius":8584,"slightly":8585,"summertime":8586,"whilst":8587,"55":8588,"batch":8589,"fusion":8590,"hut":8591,"mi":8592,"mph":8593,"pas":8594,"pages":8595,"rope":8596,"yan":8597,"##uary":8598,"##reg":8599,"##chain":8600,"plat":8601,"spoke":8602,"becom":8603,"overcome":8604,"##eless":8605,"accord":8606,"##doll":8607,"fulltime":8608,"fantasizing":8609,"crossed":8610,"transitioned":8611,"results":8612,"negative":8613,"hustle":8614,"august":8615,"armpits":8616,"yanke":8617,"dana":8618,"fought":8619,"fio":8620,"gaz":8621,"migrated":8622,"pint":8623,"vict":8624,"yu":8625,"inland":8626,"bever":8627,"##isu":8628,"nove":8629,"tiram":8630,"spear":8631,"arrest":8632,"trapped":8633,"doesn":8634,"traveler":8635,"waist":8636,"passat":8637,"downfall":8638,"hunger":8639,"realized":8640,"##ashions":8641,"pickup":8642,"object":8643,"audi":8644,"floating":8645,"investment":8646,"conversations":8647,"spoil":8648,"expressions":8649,"rabbits":8650,"##cription":8651,"etsy":8652,"enthusiast":8653,"tiramisu":8654,"cass":8655,"mas":8656,"##mans":8657,"##gage":8658,"##iable":8659,"##vs":8660,"dong":8661,"##oration":8662,"##ndane":8663,"##esis":8664,"##oty":8665,"shapes":8666,"attemp":8667,"mundane":8668,"yearly":8669,"blocks":8670,"bron":8671,"bridge":8672,"##ived":8673,"##bey":8674,"animator":8675,"bully":8676,"perfectly":8677,"vacationing":8678,"johnny":8679,"collab":8680,"##ification":8681,"140":8682,"stocker":8683,"mortgage":8684,"squat":8685,"touches":8686,"loser":8687,"cabinet":8688,"umass":8689,"tabby":8690,"murders":8691,"pacific":8692,"revol":8693,"vestie":8694,"archaeologist":8695,"era":8696,"fatty":8697,"oste":8698,"ram":8699,"taurus":8700,"wis":8701,"##gom":8702,"##earest":8703,"shut":8704,"##eee":8705,"sucked":8706,"user":8707,"hardest":8708,"fisher":8709,"eloped":8710,"underwater":8711,"preferred":8712,"trim":8713,"practically":8714,"stressing":8715,"airline":8716,"##itches":8717,"pregnancy":8718,"2011":8719,"banjo":8720,"adults":8721,"montgom":8722,"automob":8723,"cindy":8724,"aspirations":8725,"pnb":8726,"osteopath":8727,"wisdom":8728,"montgomery":8729,"len":8730,"oma":8731,"sac":8732,"##roy":8733,"##lower":8734,"##iers":8735,"##cas":8736,"stad":8737,"hill":8738,"abilities":8739,"funky":8740,"rebuild":8741,"##iflower":8742,"##uliflower":8743,"##uds":8744,"marks":8745,"offense":8746,"unf":8747,"overwh":8748,"surfed":8749,"cauliflower":8750,"socializing":8751,"bedtime":8752,"oceans":8753,"winding":8754,"fantasize":8755,"soulmate":8756,"meditating":8757,"cheerleaders":8758,"atlantic":8759,"jackets":8760,"destroy":8761,"blends":8762,"frustrating":8763,"reddish":8764,"convention":8765,"refurbish":8766,"omao":8767,"stadium":8768,"overwhel":8769,"hood":8770,"pun":8771,"pra":8772,"zeal":8773,"##wers":8774,"##woman":8775,"##oomy":8776,"melo":8777,"sporty":8778,"sage":8779,"overtime":8780,"quiz":8781,"planing":8782,"moral":8783,"gloomy":8784,"barg":8785,"sonny":8786,"gene":8787,"churches":8788,"remode":8789,"educational":8790,"irc":8791,"grandmothers":8792,"explode":8793,"indiana":8794,"answers":8795,"utility":8796,"bicycling":8797,"status":8798,"streaming":8799,"korean":8800,"bryan":8801,"misunderstood":8802,"50s":8803,"ming":8804,"##uals":8805,"##tub":8806,"##vann":8807,"##aline":8808,"coding":8809,"##adill":8810,"aswell":8811,"##imp":8812,"##reshing":8813,"owners":8814,"unha":8815,"finest":8816,"phobi":8817,"ours":8818,"##iments":8819,"jovann":8820,"sleeps":8821,"collections":8822,"terminal":8823,"practical":8824,"donating":8825,"sli":8826,"evac":8827,"refreshing":8828,"bagel":8829,"bartending":8830,"chased":8831,"apologies":8832,"split":8833,"##hawks":8834,"procedure":8835,"insec":8836,"numan":8837,"rescued":8838,"naughty":8839,"mingle":8840,"phobias":8841,"maz":8842,"op":8843,"overe":8844,"##ros":8845,"##gra":8846,"theory":8847,"themed":8848,"##amation":8849,"reun":8850,"##iel":8851,"extend":8852,"arth":8853,"managed":8854,"needles":8855,"offers":8856,"craw":8857,"farmhand":8858,"##athy":8859,"resting":8860,"talker":8861,"cleaned":8862,"regist":8863,"celebrating":8864,"snacking":8865,"injuries":8866,"included":8867,"cultured":8868,"orphanage":8869,"screaming":8870,"weightlifting":8871,"mechanical":8872,"cubs":8873,"complicated":8874,"cereal":8875,"horn":8876,"rican":8877,"western":8878,"##rative":8879,"##cies":8880,"thir":8881,"##ano":8882,"##eteria":8883,"sox":8884,"meow":8885,"stere":8886,"shred":8887,"cod":8888,"##ulation":8889,"carping":8890,"march":8891,"guesth":8892,"trop":8893,"trophy":8894,"grammy":8895,"convin":8896,"adren":8897,"produc":8898,"##shift":8899,"pools":8900,"stickshift":8901,"strictly":8902,"cafeteria":8903,"motivate":8904,"provides":8905,"ninet":8906,"convertibles":8907,"invented":8908,"blanket":8909,"experimenting":8910,"pirate":8911,"beliefs":8912,"lyrics":8913,"guesthouse":8914,"convinced":8915,"ay":8916,"nag":8917,"roy":8918,"soooo":8919,"tzu":8920,"woof":8921,"##lass":8922,"##fire":8923,"##fashions":8924,"##inge":8925,"lime":8926,"##itage":8927,"spit":8928,"clears":8929,"##ifer":8930,"traged":8931,"##resso":8932,"##lesfashions":8933,"herd":8934,"heritage":8935,"adobe":8936,"girly":8937,"lelesfashions":8938,"cringe":8939,"##kenstein":8940,"sites":8941,"tenth":8942,"trifect":8943,"term":8944,"##rowave":8945,"incre":8946,"nerds":8947,"budwe":8948,"production":8949,"196":8950,"closed":8951,"organization":8952,"eastern":8953,"memor":8954,"scientists":8955,"microwave":8956,"hotels":8957,"bulldogs":8958,"##hop1":8959,"oils":8960,"freaky":8961,"cafepress":8962,"advantage":8963,"task":8964,"accomplished":8965,"embarrassed":8966,"frankenstein":8967,"shih":8968,"handicapper":8969,"americans":8970,"lelesfashionshop1":8971,"trifecta":8972,"budweiser":8973,"bul":8974,"emer":8975,"mental":8976,"ole":8977,"wy":8978,"##lan":8979,"##xual":8980,"toast":8981,"##chil":8982,"sher":8983,"chalk":8984,"alley":8985,"enchil":8986,"ark":8987,"fem":8988,"highest":8989,"##ival":8990,"snap":8991,"perk":8992,"locked":8993,"potential":8994,"blogging":8995,"costs":8996,"posted":8997,"holds":8998,"slowly":8999,"squad":9000,"princesses":9001,"jacket":9002,"redheads":9003,"headsets":9004,"swords":9005,"daisy":9006,"arguments":9007,"relocated":9008,"cigarettes":9009,"emerald":9010,"enchiladas":9011,"bamb":9012,"hint":9013,"rog":9014,"##apper":9015,"##ij":9016,"shocked":9017,"##cture":9018,"ens":9019,"eaters":9020,"marching":9021,"unchain":9022,"skip":9023,"relaxation":9024,"snapper":9025,"companions":9026,"shortly":9027,"genetic":9028,"resident":9029,"handed":9030,"hopes":9031,"fitting":9032,"figuring":9033,"womens":9034,"retailer":9035,"indians":9036,"sara":9037,"optim":9038,"distraction":9039,"albums":9040,"protection":9041,"sourced":9042,"massive":9043,"django":9044,"landscape":9045,"floods":9046,"dolphin":9047,"convince":9048,"reincarnated":9049,"samples":9050,"becomes":9051,"unchained":9052,"jul":9053,"wag":9054,"##robi":9055,"##ooby":9056,"##asp":9057,"goat":9058,"sued":9059,"prec":9060,"oris":9061,"bland":9062,"##bel":9063,"animation":9064,"root":9065,"##iley":9066,"scooby":9067,"##berg":9068,"poison":9069,"hug":9070,"supply":9071,"leftover":9072,"trends":9073,"instruct":9074,"babydoll":9075,"hmmmm":9076,"prime":9077,"bowie":9078,"confession":9079,"obese":9080,"saturdays":9081,"toyotas":9082,"215":9083,"inspirations":9084,"bathroom":9085,"burned":9086,"chihuahuas":9087,"necessarily":9088,"cousins":9089,"crystal":9090,"seeds":9091,"improving":9092,"crisp":9093,"4h":9094,"biling":9095,"ditch":9096,"ecc":9097,"efficient":9098,"hoops":9099,"jill":9100,"kane":9101,"sink":9102,"tee":9103,"##lines":9104,"##tler":9105,"##gues":9106,"##drop":9107,"##you":9108,"##analy":9109,"loan":9110,"forms":9111,"antar":9112,"button":9113,"atari":9114,"aband":9115,"grease":9116,"##cted":9117,"##ctica":9118,"##enties":9119,"##entric":9120,"managing":9121,"twenties":9122,"animations":9123,"unsoci":9124,"rocking":9125,"sooner":9126,"biographies":9127,"contro":9128,"dealt":9129,"middles":9130,"checker":9131,"moder":9132,"smoker":9133,"juices":9134,"messing":9135,"billion":9136,"jackie":9137,"unex":9138,"solitude":9139,"compli":9140,"digging":9141,"gambler":9142,"skittler":9143,"referring":9144,"keyboards":9145,"crocodiles":9146,"psychoanaly":9147,"extensive":9148,"bilingual":9149,"eccentric":9150,"antarctica":9151,"unsociable":9152,"middlesex":9153,"mins":9154,"yose":9155,"##mite":9156,"##aves":9157,"##js":9158,"tol":9159,"worship":9160,"hiker":9161,"nebr":9162,"partners":9163,"function":9164,"##iances":9165,"##acy":9166,"singers":9167,"smiling":9168,"cannib":9169,"crummy":9170,"buys":9171,"florist":9172,"##anks":9173,"decision":9174,"simps":9175,"##visor":9176,"pleasures":9177,"transit":9178,"goofy":9179,"solid":9180,"proposing":9181,"booze":9182,"sociable":9183,"speeding":9184,"awwww":9185,"corporation":9186,"counse":9187,"jefferson":9188,"lemonade":9189,"diverse":9190,"rehearsing":9191,"dingy":9192,"brutal":9193,"elephants":9194,"greedy":9195,"yosemite":9196,"nebraska":9197,"bora":9198,"lag":9199,"pact":9200,"pts":9201,"##nie":9202,"##uine":9203,"##tes":9204,"##inity":9205,"thx":9206,"##stic":9207,"##icken":9208,"##ases":9209,"##iding":9210,"stab":9211,"workaholic":9212,"goodnight":9213,"chap":9214,"##the":9215,"doggy":9216,"##izes":9217,"cheating":9218,"checked":9219,"basis":9220,"phob":9221,"growth":9222,"genuine":9223,"creations":9224,"charles":9225,"poppin":9226,"boyfriends":9227,"slim":9228,"hoe":9229,"honesty":9230,"rufus":9231,"hippies":9232,"investments":9233,"disappoints":9234,"exams":9235,"debate":9236,"bags":9237,"zombies":9238,"economy":9239,"performing":9240,"recruiter":9241,"logical":9242,"relatives":9243,"treasures":9244,"ambition":9245,"delightful":9246,"volkswagen":9247,"unfair":9248,"7th":9249,"dare":9250,"dane":9251,"gulf":9252,"mam":9253,"pushing":9254,"##matic":9255,"##lay":9256,"##iors":9257,"##ec":9258,"##itzer":9259,"##uting":9260,"worm":9261,"stead":9262,"coverage":9263,"##days":9264,"muff":9265,"enjoyment":9266,"grind":9267,"flute":9268,"wonders":9269,"curls":9270,"preferably":9271,"appropriate":9272,"perm":9273,"sits":9274,"cloths":9275,"triv":9276,"edm":9277,"publisher":9278,"audience":9279,"comforting":9280,"propose":9281,"zeppel":9282,"##force":9283,"illust":9284,"belonged":9285,"astronomy":9286,"extended":9287,"arkansas":9288,"zeppelin":9289,"ged":9290,"hulu":9291,"il":9292,"kim":9293,"nam":9294,"poc":9295,"vert":9296,"lied":9297,"lick":9298,"##arried":9299,"##ened":9300,"hii":9301,"outra":9302,"wrink":9303,"flies":9304,"flipping":9305,"appro":9306,"stro":9307,"fallen":9308,"weirdo":9309,"tread":9310,"warming":9311,"vegetarianism":9312,"##umpy":9313,"remarried":9314,"smelling":9315,"generous":9316,"librarians":9317,"pleased":9318,"occasions":9319,"pumped":9320,"investing":9321,"touching":9322,"joys":9323,"cloudy":9324,"introduce":9325,"exclamation":9326,"rabbit":9327,"flirted":9328,"1979":9329,"progressive":9330,"repeat":9331,"exclusively":9332,"dvd":9333,"zealand":9334,"stereoty":9335,"adrenaline":9336,"bump":9337,"cate":9338,"foo":9339,"hens":9340,"iv":9341,"kom":9342,"nearest":9343,"##overs":9344,"##taking":9345,"##ik":9346,"##bal":9347,"##burn":9348,"##ller":9349,"##lden":9350,"molly":9351,"chart":9352,"cocon":9353,"##irl":9354,"spill":9355,"trap":9356,"##acked":9357,"converted":9358,"smiles":9359,"artsy":9360,"surger":9361,"deceased":9362,"calden":9363,"beds":9364,"expenses":9365,"crafty":9366,"involving":9367,"punkrock":9368,"##chester":9369,"surroundings":9370,"manga":9371,"puzzle":9372,"ipad":9373,"proofreader":9374,"hairstyles":9375,"assessor":9376,"luxury":9377,"komodo":9378,"coconut":9379,"surgeries":9380,"aer":9381,"bobby":9382,"eager":9383,"tang":9384,"##zing":9385,"##ering":9386,"##orous":9387,"theaters":9388,"sting":9389,"##rian":9390,"chances":9391,"##ober":9392,"##anda":9393,"daytime":9394,"##essions":9395,"exes":9396,"##cient":9397,"grape":9398,"smh":9399,"union":9400,"##issa":9401,"biased":9402,"greenberg":9403,"##anky":9404,"brands":9405,"politician":9406,"educate":9407,"worrying":9408,"magician":9409,"ordering":9410,"bloody":9411,"cola":9412,"sending":9413,"toured":9414,"doug":9415,"reaching":9416,"hyper":9417,"connection":9418,"parakeets":9419,"entering":9420,"espresso":9421,"melissa":9422,"witty":9423,"ragini":9424,"reenactment":9425,"october":9426,"aka":9427,"kang":9428,"kills":9429,"mature":9430,"zen":9431,"thesis":9432,"##otive":9433,"lik":9434,"##iti":9435,"##rier":9436,"cozy":9437,"seats":9438,"blows":9439,"cookbook":9440,"offensive":9441,"dipped":9442,"sah":9443,"bold":9444,"bik":9445,"secure":9446,"bedroom":9447,"##ront":9448,"majora":9449,"##load":9450,"label":9451,"lifter":9452,"martini":9453,"poodles":9454,"centers":9455,"connected":9456,"csr":9457,"scrubs":9458,"purchased":9459,"leaning":9460,"communicate":9461,"flowing":9462,"williams":9463,"freelancing":9464,"unhappy":9465,"jovannie":9466,"kangar":9467,"aston":9468,"diss":9469,"ic":9470,"sized":9471,"##aver":9472,"##zzy":9473,"##buds":9474,"isra":9475,"##entic":9476,"##aint":9477,"teh":9478,"needing":9479,"animated":9480,"elite":9481,"housework":9482,"##tening":9483,"billy":9484,"amazed":9485,"sounding":9486,"throne":9487,"earbuds":9488,"diners":9489,"cave":9490,"beards":9491,"authentic":9492,"savings":9493,"cheering":9494,"jams":9495,"terrific":9496,"waitressing":9497,"malls":9498,"points":9499,"solution":9500,"garbage":9501,"touched":9502,"champions":9503,"value":9504,"printed":9505,"sneakers":9506,"panama":9507,"influence":9508,"sculptures":9509,"crunchy":9510,"tropical":9511,"females":9512,"cannibal":9513,"israel":9514,"dar":9515,"ward":9516,"##gie":9517,"##cribe":9518,"##bed":9519,"infer":9520,"begging":9521,"anth":9522,"meh":9523,"##ombs":9524,"stole":9525,"##ckon":9526,"##ooks":9527,"greatly":9528,"rely":9529,"reckon":9530,"kiddo":9531,"prices":9532,"blown":9533,"tender":9534,"una":9535,"happiest":9536,"permit":9537,"builder":9538,"honors":9539,"boost":9540,"paths":9541,"devoted":9542,"scarf":9543,"vocals":9544,"rpgs":9545,"sunflower":9546,"patterson":9547,"adjust":9548,"wilderness":9549,"recognize":9550,"victim":9551,"evacu":9552,"registered":9553,"31":9554,"ace":9555,"kool":9556,"mak":9557,"pace":9558,"pour":9559,"via":9560,"##mat":9561,"##rome":9562,"##long":9563,"tha":9564,"haun":9565,"sole":9566,"stood":9567,"realy":9568,"##unner":9569,"##urge":9570,"greg":9571,"readin":9572,"cater":9573,"heres":9574,"##ibl":9575,"elses":9576,"glob":9577,"crashed":9578,"beloved":9579,"weirdest":9580,"standard":9581,"burnt":9582,"burning":9583,"endless":9584,"yeh":9585,"specialist":9586,"settling":9587,"winds":9588,"goof":9589,"wheeler":9590,"venice":9591,"mysterious":9592,"splurge":9593,"frag":9594,"reports":9595,"interaction":9596,"cowboys":9597,"ps4":9598,"threatening":9599,"concerned":9600,"november":9601,"remodeling":9602,"royal":9603,"bums":9604,"josh":9605,"kate":9606,"lack":9607,"##sup":9608,"##cs":9609,"##aru":9610,"mellow":9611,"stub":9612,"chris":9613,"someplace":9614,"frog":9615,"wassup":9616,"spont":9617,"soups":9618,"goth":9619,"drib":9620,"roots":9621,"backp":9622,"feline":9623,"hairless":9624,"phd":9625,"tyler":9626,"##berries":9627,"idi":9628,"paycheck":9629,"browns":9630,"rained":9631,"donated":9632,"subaru":9633,"filmed":9634,"incident":9635,"competing":9636,"reply":9637,"regard":9638,"poorly":9639,"supporting":9640,"discounts":9641,"processed":9642,"drew":9643,"pillage":9644,"kenny":9645,"satisfy":9646,"aggressive":9647,"reptiles":9648,"helmet":9649,"cinema":9650,"intimidated":9651,"gazing":9652,"3d":9653,"eaves":9654,"mcc":9655,"pope":9656,"rit":9657,"sust":9658,"sill":9659,"tinder":9660,"vine":9661,"##away":9662,"##his":9663,"anna":9664,"memp":9665,"##lection":9666,"reaction":9667,"chad":9668,"partake":9669,"bruce":9670,"needy":9671,"sweep":9672,"confl":9673,"tonite":9674,"blueberry":9675,"lem":9676,"##uffle":9677,"theirs":9678,"strings":9679,"rider":9680,"stark":9681,"mcg":9682,"freight":9683,"##lock":9684,"smokey":9685,"##backs":9686,"admiring":9687,"poster":9688,"facts":9689,"angels":9690,"scenic":9691,"mansions":9692,"drying":9693,"latin":9694,"cherries":9695,"deserves":9696,"dreary":9697,"volcano":9698,"claim":9699,"riverside":9700,"separate":9701,"scandal":9702,"thirsty":9703,"##ickens":9704,"eavesdrop":9705,"sustain":9706,"memphis":9707,"conflict":9708,"bore":9709,"eb":9710,"jk":9711,"oath":9712,"oats":9713,"pjs":9714,"tops":9715,"amd":9716,"##oom":9717,"##icting":9718,"##cho":9719,"stiff":9720,"tires":9721,"upgra":9722,"tees":9723,"switzer":9724,"gramm":9725,"listener":9726,"longest":9727,"heros":9728,"wonderfully":9729,"exercises":9730,"seahawks":9731,"writers":9732,"tourname":9733,"spaniel":9734,"trusting":9735,"reminded":9736,"kingdom":9737,"fireman":9738,"explos":9739,"##ritis":9740,"bearded":9741,"tempt":9742,"duct":9743,"connecting":9744,"translating":9745,"pedal":9746,"materials":9747,"blew":9748,"vitamins":9749,"timberlike":9750,"individuals":9751,"tubac":9752,"bloated":9753,"neurotic":9754,"exhib":9755,"platform":9756,"beverages":9757,"arthritis":9758,"steady":9759,"switzerland":9760,"5k":9761,"gim":9762,"mau":9763,"pt":9764,"ree":9765,"##mill":9766,"##log":9767,"##elle":9768,"##bled":9769,"##fires":9770,"##erving":9771,"##orp":9772,"##arison":9773,"socially":9774,"offe":9775,"staff":9776,"heated":9777,"chills":9778,"ohhh":9779,"sudd":9780,"enlist":9781,"therefore":9782,"rebel":9783,"##ula":9784,"drown":9785,"comparison":9786,"whoever":9787,"fished":9788,"flights":9789,"paraly":9790,"##iped":9791,"milking":9792,"minded":9793,"brad":9794,"smartphones":9795,"wildfires":9796,"stronger":9797,"operate":9798,"typo":9799,"sweethearts":9800,"farther":9801,"entirely":9802,"##playing":9803,"illiter":9804,"skunks":9805,"ferrets":9806,"germs":9807,"felines":9808,"dews":9809,"conventions":9810,"bounce":9811,"ewww":9812,"soundtrack":9813,"treadmill":9814,"sudden":9815,"illiterate":9816,"brie":9817,"eric":9818,"gap":9819,"jared":9820,"nj":9821,"taker":9822,"vist":9823,"##xious":9824,"thug":9825,"tommy":9826,"lily":9827,"stunts":9828,"tied":9829,"outlook":9830,"prepping":9831,"brats":9832,"##asters":9833,"gump":9834,"buses":9835,"chemo":9836,"uni":9837,"basics":9838,"##phone":9839,"appeal":9840,"weekdays":9841,"bio":9842,"snoop":9843,"monsters":9844,"pole":9845,"respon":9846,"triple":9847,"##quit":9848,"##noxious":9849,"perfectionist":9850,"emt":9851,"patr":9852,"technological":9853,"obnoxious":9854,"omniv":9855,"parenting":9856,"typos":9857,"ringing":9858,"pulled":9859,"responsible":9860,"sentence":9861,"ignored":9862,"machines":9863,"dreadful":9864,"mentor":9865,"lucrative":9866,"appearance":9867,"acquired":9868,"melody":9869,"abandon":9870,"simpsons":9871,"ptsd":9872,"response":9873,"omnivore":9874,"47":9875,"gpa":9876,"ipa":9877,"mick":9878,"pix":9879,"sed":9880,"vv":9881,"wat":9882,"wink":9883,"##iary":9884,"##hy":9885,"##wish":9886,"youtub":9887,"toll":9888,"##esh":9889,"failed":9890,"shad":9891,"##outs":9892,"abst":9893,"alps":9894,"outer":9895,"##ented":9896,"tends":9897,"troy":9898,"swamp":9899,"drift":9900,"##mpunk":9901,"nightwish":9902,"quilt":9903,"skins":9904,"restore":9905,"mighty":9906,"chats":9907,"chatted":9908,"balloon":9909,"eachother":9910,"added":9911,"exception":9912,"magicians":9913,"parrots":9914,"annoys":9915,"flaw":9916,"promote":9917,"operation":9918,"decorated":9919,"hippo":9920,"denaro":9921,"pandora":9922,"breathtaking":9923,"scratched":9924,"duo":9925,"newspapers":9926,"ladder":9927,"scarves":9928,"cheeses":9929,"effective":9930,"steampunk":9931,"behavioral":9932,"academic":9933,"heels":9934,"optimistic":9935,"youtuber":9936,"hoo":9937,"laps":9938,"rink":9939,"rud":9940,"rashed":9941,"tester":9942,"wander":9943,"##atically":9944,"##orow":9945,"##orating":9946,"##sta":9947,"mold":9948,"ash":9949,"##ifi":9950,"brb":9951,"seemed":9952,"pew":9953,"hobbit":9954,"##ationally":9955,"drow":9956,"shopaholic":9957,"scifi":9958,"reduce":9959,"rocky":9960,"freeing":9961,"freely":9962,"poll":9963,"genes":9964,"creamer":9965,"internationally":9966,"prized":9967,"smokes":9968,"##pected":9969,"feeds":9970,"depend":9971,"channels":9972,"journey":9973,"athletics":9974,"corvettes":9975,"audio":9976,"##ramax":9977,"epic":9978,"electricity":9979,"duramax":9980,"translate":9981,"mutineers":9982,"vehicles":9983,"flooded":9984,"gangsta":9985,"automotive":9986,"bffs":9987,"paranoid":9988,"aldi":9989,"cramps":9990,"attached":9991,"manicures":9992,"obligated":9993,"individual":9994,"associates":9995,"replaced":9996,"tourists":9997,"sumba":9998,"tommorow":9999,"unexpected":10000,"compliment":10001,"phobia":10002,"fid":10003,"fict":10004,"kong":10005,"mens":10006,"rack":10007,"wool":10008,"wound":10009,"##wis":10010,"##reen":10011,"bend":10012,"react":10013,"mos":10014,"coins":10015,"##anted":10016,"themes":10017,"click":10018,"##assion":10019,"interf":10020,"grapes":10021,"parale":10022,"phew":10023,"curvy":10024,"biologist":10025,"perman":10026,"nurs":10027,"seren":10028,"pastas":10029,"ridden":10030,"watermel":10031,"##coe":10032,"sled":10033,"competed":10034,"photographed":10035,"climate":10036,"ranked":10037,"zoom":10038,"roscoe":10039,"##dale":10040,"obvious":10041,"envious":10042,"treatment":10043,"##aaa":10044,"schedul":10045,"uncles":10046,"inspirational":10047,"ninja":10048,"jenn":10049,"gatherings":10050,"speller":10051,"belongs":10052,"13th":10053,"rollerblade":10054,"periods":10055,"litter":10056,"properly":10057,"unpacking":10058,"wrapped":10059,"aldis":10060,"sweaty":10061,"dumped":10062,"corgi":10063,"pinto":10064,"overeat":10065,"namaste":10066,"outrageous":10067,"haunted":10068,"paralegal":10069,"60s":10070,"75":10071,"aar":10072,"brill":10073,"eld":10074,"munch":10075,"moose":10076,"tink":10077,"tries":10078,"##mers":10079,"##nge":10080,"##tom":10081,"##cal":10082,"##wa":10083,"##pea":10084,"forth":10085,"##omore":10086,"stands":10087,"##alogue":10088,"ohhhh":10089,"partial":10090,"##ished":10091,"enlight":10092,"##entious":10093,"tragic":10094,"fishin":10095,"sailing":10096,"quir":10097,"leased":10098,"sweetest":10099,"##ggy":10100,"##plets":10101,"triplets":10102,"warcraft":10103,"airport":10104,"priest":10105,"primar":10106,"repet":10107,"columb":10108,"armadill":10109,"signatures":10110,"forests":10111,"boutique":10112,"stockp":10113,"bathing":10114,"debating":10115,"sighted":10116,"oooo":10117,"pretentious":10118,"continues":10119,"expression":10120,"healed":10121,"scarlet":10122,"shakespea":10123,"whittle":10124,"snuggles":10125,"hallmark":10126,"adjusting":10127,"progress":10128,"crocodile":10129,"neckl":10130,"sparky":10131,"sophomore":10132,"primarily":10133,"armadillo":10134,"shakespeare":10135,"59":10136,"cries":10137,"fal":10138,"guts":10139,"##aison":10140,"##nut":10141,"##lift":10142,"##tor":10143,"##bid":10144,"##inations":10145,"thread":10146,"liaison":10147,"ami":10148,"ancient":10149,"megan":10150,"chit":10151,"chicks":10152,"allot":10153,"lotto":10154,"awards":10155,"schooled":10156,"manual":10157,"margar":10158,"intake":10159,"##rene":10160,"dipl":10161,"crappy":10162,"recre":10163,"recite":10164,"restrict":10165,"realtor":10166,"rapping":10167,"charco":10168,"pitcher":10169,"tourney":10170,"zoos":10171,"regional":10172,"experienced":10173,"disneyland":10174,"rewards":10175,"bosses":10176,"psychos":10177,"shooter":10178,"lasik":10179,"includes":10180,"tails":10181,"mondays":10182,"weapon":10183,"borderline":10184,"grayce":10185,"coordination":10186,"arrog":10187,"ignoring":10188,"peaches":10189,"performed":10190,"witness":10191,"mentally":10192,"procedures":10193,"steam":10194,"assignment":10195,"granddaughter":10196,"sodas":10197,"attempt":10198,"tragedy":10199,"pocket":10200,"enlisted":10201,"diploma":10202,"charcoal":10203,"bich":10204,"jr":10205,"kud":10206,"nest":10207,"pee":10208,"wil":10209,"##uar":10210,"##uge":10211,"##rane":10212,"##bab":10213,"thigh":10214,"##errane":10215,"amanda":10216,"alarm":10217,"cans":10218,"canv":10219,"##cking":10220,"rex":10221,"newton":10222,"graham":10223,"##agers":10224,"##aping":10225,"adding":10226,"quil":10227,"philly":10228,"bonding":10229,"bodies":10230,"biker":10231,"metro":10232,"perch":10233,"desired":10234,"horri":10235,"horiz":10236,"colds":10237,"##ordan":10238,"##ailed":10239,"camry":10240,"policy":10241,"braz":10242,"freshmen":10243,"dynam":10244,"roads":10245,"bullied":10246,"##attered":10247,"disappeared":10248,"britt":10249,"pancake":10250,"mediterrane":10251,"duke":10252,"thrilled":10253,"debts":10254,"palace":10255,"venus":10256,"beneficial":10257,"uncommon":10258,"deserved":10259,"hidden":10260,"gangster":10261,"chopped":10262,"legend":10263,"estee":10264,"proofreading":10265,"influenced":10266,"mitten":10267,"omelettes":10268,"audiob":10269,"bargains":10270,"##lasses":10271,"trivia":10272,"bichon":10273,"kudos":10274,"mediterranean":10275,"cm":10276,"cly":10277,"cried":10278,"gi":10279,"hed":10280,"icing":10281,"meas":10282,"ren":10283,"wig":10284,"##master":10285,"##oly":10286,"##not":10287,"##ded":10288,"##was":10289,"##atile":10290,"whine":10291,"inn":10292,"beverage":10293,"canoe":10294,"##cel":10295,"outs":10296,"##allel":10297,"##aborate":10298,"carp":10299,"comprom":10300,"reliable":10301,"safer":10302,"pains":10303,"elaborate":10304,"parallel":10305,"teased":10306,"fanboy":10307,"reser":10308,"steakhouse":10309,"cuts":10310,"dishwas":10311,"##hahahaha":10312,"juicing":10313,"deter":10314,"deny":10315,"noneth":10316,"bathe":10317,"olives":10318,"strive":10319,"versatile":10320,"accents":10321,"semis":10322,"battles":10323,"wednesdays":10324,"consists":10325,"craziest":10326,"asterix":10327,"inferior":10328,"victims":10329,"global":10330,"stubborn":10331,"dishwasher":10332,"nonetheless":10333,"cpa":10334,"hort":10335,"kr":10336,"kart":10337,"linc":10338,"pou":10339,"sip":10340,"tul":10341,"##oha":10342,"##nn":10343,"##del":10344,"##inn":10345,"##inated":10346,"aloha":10347,"noon":10348,"##andra":10349,"reh":10350,"##oln":10351,"seque":10352,"lifelong":10353,"intimate":10354,"grumpy":10355,"redne":10356,"crave":10357,"passa":10358,"yogurt":10359,"clever":10360,"treated":10361,"majestic":10362,"consume":10363,"acara":10364,"catches":10365,"sorting":10366,"patri":10367,"hamster":10368,"policeman":10369,"yodel":10370,"turk":10371,"##roof":10372,"mixes":10373,"collage":10374,"taxed":10375,"silence":10376,"cellphone":10377,"grabbing":10378,"healing":10379,"gentleman":10380,"seventies":10381,"##hawk":10382,"aspects":10383,"cemetery":10384,"pissed":10385,"bulk":10386,"spontaneous":10387,"ebay":10388,"lincoln":10389,"6ft":10390,"bah":10391,"cert":10392,"fps":10393,"gator":10394,"lg":10395,"naked":10396,"peep":10397,"ron":10398,"ruth":10399,"##aign":10400,"##ella":10401,"##person":10402,"##esha":10403,"##onoun":10404,"##stit":10405,"##rage":10406,"abou":10407,"chore":10408,"washer":10409,"enem":10410,"##uline":10411,"pronoun":10412,"deck":10413,"courage":10414,"listing":10415,"##acular":10416,"ownership":10417,"smur":10418,"scra":10419,"reds":10420,"sneeze":10421,"calz":10422,"hunted":10423,"businessman":10424,"ponds":10425,"watering":10426,"population":10427,"yumi":10428,"slaughter":10429,"submit":10430,"substit":10431,"##ieties":10432,"follows":10433,"shrimps":10434,"jammin":10435,"terriers":10436,"campaign":10437,"angela":10438,"privately":10439,"recommendations":10440,"reaches":10441,"reached":10442,"deserts":10443,"stepped":10444,"illness":10445,"loaded":10446,"nanny":10447,"doodle":10448,"eyebrows":10449,"hygiene":10450,"seventy":10451,"harvesting":10452,"masculine":10453,"received":10454,"spectacular":10455,"flew":10456,"dwight":10457,"paralyzed":10458,"enemies":10459,"90s":10460,"bor":10461,"erot":10462,"ii":10463,"oat":10464,"pins":10465,"wuss":10466,"##zart":10467,"##uana":10468,"##robe":10469,"##iques":10470,"##des":10471,"##york":10472,"##atar":10473,"isn":10474,"##itt":10475,"##etnam":10476,"##utic":10477,"forte":10478,"mozart":10479,"coca":10480,"##obic":10481,"getaway":10482,"funn":10483,"##ament":10484,"##iffe":10485,"tracks":10486,"carri":10487,"newyork":10488,"marij":10489,"wishes":10490,"runners":10491,"unlo":10492,"scored":10493,"scobby":10494,"parade":10495,"rocker":10496,"winners":10497,"imperson":10498,"madden":10499,"belive":10500,"pointer":10501,"indul":10502,"shorts":10503,"vietnam":10504,"geo":10505,"##unks":10506,"20th":10507,"incorp":10508,"fox":10509,"##apeutic":10510,"papa":10511,"michelle":10512,"avatar":10513,"confusion":10514,"johns":10515,"messages":10516,"psychic":10517,"therapeutic":10518,"heav":10519,"##ifications":10520,"funds":10521,"empan":10522,"thrilling":10523,"devil":10524,"heals":10525,"tort":10526,"wisely":10527,"contests":10528,"##cutive":10529,"according":10530,"wardrobe":10531,"abstract":10532,"marijuana":10533,"jesse":10534,"loooo":10535,"mim":10536,"nar":10537,"oo":10538,"sights":10539,"vuit":10540,"yap":10541,"##zes":10542,"##gary":10543,"##cent":10544,"##hoo":10545,"##wear":10546,"##power":10547,"thail":10548,"##llie":10549,"##standing":10550,"inqu":10551,"##isure":10552,"##leys":10553,"stil":10554,"hells":10555,"workplace":10556,"mocha":10557,"willie":10558,"orc":10559,"##ulate":10560,"buried":10561,"overc":10562,"overly":10563,"##ibilities":10564,"flea":10565,"parmes":10566,"prove":10567,"leisure":10568,"downside":10569,"cranky":10570,"below":10571,"##gger":10572,"sonic":10573,"seconds":10574,"trilog":10575,"slaver":10576,"gem":10577,"incoming":10578,"dylan":10579,"entail":10580,"tales":10581,"annually":10582,"dishon":10583,"package":10584,"bumble":10585,"details":10586,"leading":10587,"collea":10588,"delivering":10589,"advertise":10590,"bottom":10591,"equal":10592,"kisses":10593,"##ports":10594,"responsibilities":10595,"advance":10596,"participated":10597,"concentration":10598,"satisfied":10599,"nightmares":10600,"chirp":10601,"reread":10602,"precise":10603,"gimme":10604,"drowning":10605,"mosquit":10606,"watermelon":10607,"brazil":10608,"thailand":10609,"parmesan":10610,"aid":10611,"aaa":10612,"cna":10613,"ego":10614,"gators":10615,"lent":10616,"rangers":10617,"vw":10618,"vices":10619,"wpm":10620,"##uase":10621,"##yn":10622,"##kien":10623,"##bust":10624,"ism":10625,"##ashing":10626,"shining":10627,"cany":10628,"##thm":10629,"##terest":10630,"dean":10631,"twitch":10632,"momma":10633,"becuase":10634,"takeout":10635,"overall":10636,"scores":10637,"drawn":10638,"somethings":10639,"flun":10640,"underground":10641,"housema":10642,"curren":10643,"passes":10644,"morgue":10645,"lewis":10646,"server":10647,"serves":10648,"##bro":10649,"headphones":10650,"resist":10651,"waterp":10652,"potty":10653,"##coats":10654,"raincoats":10655,"birthplace":10656,"skipped":10657,"addicting":10658,"keith":10659,"marketer":10660,"worthy":10661,"creeks":10662,"invested":10663,"microbi":10664,"reflection":10665,"scratching":10666,"winnings":10667,"pinterest":10668,"mutts":10669,"alpaca":10670,"scrubway":10671,"encourages":10672,"achievement":10673,"berries":10674,"effects":10675,"conventional":10676,"flexibility":10677,"rhythm":10678,"assigned":10679,"judgemental":10680,"tolkien":10681,"counseling":10682,"sahm":10683,"shadow":10684,"housemaid":10685,"40s":10686,"buck":10687,"bour":10688,"bombs":10689,"cus":10690,"caps":10691,"dart":10692,"dickens":10693,"etern":10694,"jere":10695,"nt":10696,"nina":10697,"sides":10698,"wired":10699,"##umed":10700,"##dinary":10701,"##oustic":10702,"##atible":10703,"whoop":10704,"##owing":10705,"anore":10706,"##rika":10707,"##una":10708,"goin":10709,"##ctive":10710,"daylight":10711,"revel":10712,"knight":10713,"ordinary":10714,"props":10715,"##ablish":10716,"##abby":10717,"carol":10718,"seiber":10719,"bru":10720,"okra":10721,"singles":10722,"bush":10723,"offic":10724,"compatible":10725,"grid":10726,"##izzy":10727,"canned":10728,"movement":10729,"applic":10730,"calf":10731,"calgon":10732,"monthly":10733,"charley":10734,"acoustic":10735,"elev":10736,"airlines":10737,"experiments":10738,"terrify":10739,"organiz":10740,"mixing":10741,"obama":10742,"physics":10743,"pilots":10744,"occasional":10745,"##odes":10746,"surviving":10747,"sexual":10748,"pathetic":10749,"mistakes":10750,"purples":10751,"temperature":10752,"spaceship":10753,"pharmacy":10754,"violet":10755,"peachy":10756,"establish":10757,"hitchhike":10758,"frightening":10759,"infant":10760,"plotting":10761,"arrested":10762,"overwhelmed":10763,"maui":10764,"interfere":10765,"anorex":10766,"96":10767,"busted":10768,"cough":10769,"cau":10770,"dit":10771,"hans":10772,"kite":10773,"lusting":10774,"ove":10775,"##mith":10776,"##names":10777,"##lave":10778,"##cos":10779,"##put":10780,"##puff":10781,"##pro":10782,"##pira":10783,"##jun":10784,"##vable":10785,"##bes":10786,"##bies":10787,"##isket":10788,"stove":10789,"stitch":10790,"shaped":10791,"alice":10792,"##teries":10793,"##oment":10794,"carn":10795,"seeking":10796,"twirl":10797,"gravy":10798,"hopeful":10799,"##amese":10800,"roar":10801,"unset":10802,"##tenance":10803,"downs":10804,"##easant":10805,"describ":10806,"describe":10807,"joan":10808,"leftovers":10809,"volunteered":10810,"cajun":10811,"conspira":10812,"hopping":10813,"maintenance":10814,"tasted":10815,"acura":10816,"larry":10817,"designers":10818,"neighbour":10819,"regrets":10820,"siamese":10821,"urs":10822,"homies":10823,"springer":10824,"tara":10825,"enviroment":10826,"nonpro":10827,"surprises":10828,"21st":10829,"corny":10830,"nicknames":10831,"bonnie":10832,"susan":10833,"bottles":10834,"verb":10835,"intend":10836,"identify":10837,"savvy":10838,"chopping":10839,"sausages":10840,"fools":10841,"troopers":10842,"korea":10843,"insect":10844,"treasure":10845,"representative":10846,"sculpture":10847,"sofa":10848,"tickle":10849,"cemeteries":10850,"##casian":10851,"praise":10852,"increase":10853,"enslave":10854,"moderation":10855,"psychoanalyze":10856,"lagged":10857,"bikini":10858,"nursery":10859,"eldest":10860,"repetitive":10861,"necklace":10862,"mittens":10863,"caucasian":10864,"enslaved":10865,"54":10866,"fles":10867,"filling":10868,"icon":10869,"rasp":10870,"sould":10871,"sab":10872,"tuck":10873,"##old":10874,"##nights":10875,"##lican":10876,"##creen":10877,"##ingles":10878,"topping":10879,"liver":10880,"##stin":10881,"init":10882,"##chup":10883,"forces":10884,"worl":10885,"sten":10886,"##rior":10887,"##rial":10888,"##rimin":10889,"##unes":10890,"##rastin":10891,"nemo":10892,"##cepting":10893,"##illas":10894,"frise":10895,"knot":10896,"clips":10897,"##ulated":10898,"broom":10899,"harold":10900,"overnights":10901,"##redict":10902,"phase":10903,"##ublican":10904,"glued":10905,"calc":10906,"jock":10907,"##while":10908,"charming":10909,"polishing":10910,"warrior":10911,"accepting":10912,"checkers":10913,"fold":10914,"wonton":10915,"address":10916,"republican":10917,"fattening":10918,"napping":10919,"18th":10920,"irrit":10921,"arches":10922,"circuit":10923,"tutorial":10924,"luke":10925,"erra":10926,"distracting":10927,"lounge":10928,"discovering":10929,"procrastin":10930,"hilton":10931,"repairing":10932,"fiancee":10933,"11th":10934,"correctly":10935,"homemaker":10936,"encouraged":10937,"ketchup":10938,"inventory":10939,"ignore":10940,"notebook":10941,"unpredict":10942,"horrors":10943,"distribute":10944,"patty":10945,"ribey":10946,"yankee":10947,"championship":10948,"temptation":10949,"recreational":10950,"unpredictable":10951,"ribeye":10952,"4r":10953,"85":10954,"ally":10955,"bunk":10956,"diction":10957,"jal":10958,"lt":10959,"mrs":10960,"nite":10961,"pine":10962,"sas":10963,"tam":10964,"vice":10965,"##ault":10966,"##ga":10967,"##emy":10968,"##bird":10969,"##eries":10970,"##atice":10971,"doe":10972,"whip":10973,"##sth":10974,"##char":10975,"beg":10976,"##asy":10977,"hiph":10978,"greasy":10979,"partly":10980,"outta":10981,"enemy":10982,"##allow":10983,"##amorous":10984,"pratice":10985,"##ieval":10986,"dept":10987,"demon":10988,"hears":10989,"coloring":10990,"complex":10991,"released":10992,"dialogue":10993,"saver":10994,"grader":10995,"cracked":10996,"boil":10997,"useless":10998,"curb":10999,"surve":11000,"wonderland":11001,"glaz":11002,"glamorous":11003,"supervisor":11004,"medieval":11005,"milan":11006,"milena":11007,"rave":11008,"concern":11009,"eyel":11010,"babe":11011,"##rodu":11012,"##quing":11013,"norway":11014,"insist":11015,"pickling":11016,"contrib":11017,"##tale":11018,"attacked":11019,"midter":11020,"snows":11021,"affair":11022,"shared":11023,"affordable":11024,"##umbing":11025,"reasonable":11026,"electr":11027,"homie":11028,"researcher":11029,"breeder":11030,"fuzzy":11031,"develope":11032,"washed":11033,"alternate":11034,"wolf":11035,"documents":11036,"exists":11037,"fairytale":11038,"awareness":11039,"pencils":11040,"ingredient":11041,"attachment":11042,"tolerate":11043,"waht":11044,"suede":11045,"rudol":11046,"aaron":11047,"canvas":11048,"esteem":11049,"4runner":11050,"jalap":11051,"hiphop":11052,"aa":11053,"au":11054,"dunk":11055,"ja":11056,"jus":11057,"rational":11058,"sack":11059,"vic":11060,"##rum":11061,"##car":11062,"##corder":11063,"##fers":11064,"##ero":11065,"##erve":11066,"isol":11067,"##onies":11068,"##onne":11069,"anton":11070,"##sem":11071,"##opes":11072,"assem":11073,"partially":11074,"funk":11075,"##inem":11076,"musica":11077,"prey":11078,"prefers":11079,"catal":11080,"betty":11081,"marc":11082,"acted":11083,"whys":11084,"hermit":11085,"##iche":11086,"dramatic":11087,"flames":11088,"##issy":11089,"hotline":11090,"joes":11091,"superb":11092,"##actic":11093,"camcorder":11094,"gladly":11095,"cleaners":11096,"picks":11097,"slots":11098,"geese":11099,"techie":11100,"humus":11101,"eminem":11102,"quietly":11103,"meantime":11104,"voiceover":11105,"sanity":11106,"irvine":11107,"##ontz":11108,"shoots":11109,"decorations":11110,"billie":11111,"lifts":11112,"solvent":11113,"fascination":11114,"agrees":11115,"##oooooooo":11116,"spiderman":11117,"acceptance":11118,"koontz":11119,"flavour":11120,"wasted":11121,"multitas":11122,"switched":11123,"homeschooling":11124,"witches":11125,"seventeen":11126,"venture":11127,"undec":11128,"lingu":11129,"cliffs":11130,"spectrum":11131,"energized":11132,"slipped":11133,"nineties":11134,"pollution":11135,"peeps":11136,"incorporate":11137,"antonio":11138,"undecided":11139,"ced":11140,"jordan":11141,"mm":11142,"rese":11143,"tame":11144,"tuit":11145,"vot":11146,"wax":11147,"##meal":11148,"##rant":11149,"##rink":11150,"##hey":11151,"##ounder":11152,"thor":11153,"##stakes":11154,"##eness":11155,"##uncture":11156,"mohawk":11157,"cokes":11158,"canines":11159,"greater":11160,"##estrian":11161,"##imo":11162,"previous":11163,"watchin":11164,"##ablo":11165,"select":11166,"blade":11167,"##osaur":11168,"shoulder":11169,"hearty":11170,"##umpt":11171,"tro":11172,"agile":11173,"rover":11174,"rocket":11175,"feature":11176,"buzz":11177,"mustard":11178,"scars":11179,"fluff":11180,"flounder":11181,"teasing":11182,"bien":11183,"restroom":11184,"##upuncture":11185,"disl":11186,"crust":11187,"##pens":11188,"dinosaur":11189,"courts":11190,"##roll":11191,"weirdly":11192,"polka":11193,"socialization":11194,"slices":11195,"honored":11196,"burt":11197,"acupuncture":11198,"election":11199,"yell":11200,"towns":11201,"simmer":11202,"robotic":11203,"coaster":11204,"grounds":11205,"generations":11206,"televs":11207,"strongest":11208,"landed":11209,"portable":11210,"racket":11211,"deniers":11212,"oui":11213,"furious":11214,"entertained":11215,"digest":11216,"whisper":11217,"tempor":11218,"earthy":11219,"balding":11220,"fifi":11221,"teenagers":11222,"gumbo":11223,"equestrian":11224,"varieties":11225,"bothering":11226,"devast":11227,"devils":11228,"juggling":11229,"hershey":11230,"membership":11231,"daniel":11232,"autobiography":11233,"triathlon":11234,"espn":11235,"accessories":11236,"sculpting":11237,"pennywise":11238,"tornado":11239,"rerun":11240,"mediums":11241,"automobiles":11242,"mazda":11243,"backpack":11244,"sweepstakes":11245,"brilliant":11246,"false":11247,"tulips":11248,"oatmeal":11249,"carribean":11250,"voting":11251,"dinosaurs":11252,"televsion":11253,"82":11254,"avert":11255,"bern":11256,"cord":11257,"fee":11258,"fiances":11259,"ima":11260,"jace":11261,"pm":11262,"tango":11263,"zu":11264,"##nch":11265,"##rust":11266,"##ruck":11267,"##laren":11268,"##vit":11269,"##fol":11270,"##inth":11271,"dot":11272,"amounts":11273,"soaps":11274,"whatnot":11275,"stool":11276,"stair":11277,"hives":11278,"pluck":11279,"chest":11280,"altit":11281,"cole":11282,"asl":11283,"timeless":11284,"tequ":11285,"##osmith":11286,"oldie":11287,"twister":11288,"conqu":11289,"african":11290,"petsitter":11291,"hairst":11292,"badass":11293,"leo":11294,"superficial":11295,"professions":11296,"##plays":11297,"resale":11298,"cleans":11299,"stresses":11300,"braid":11301,"builds":11302,"bury":11303,"humps":11304,"##version":11305,"afternoons":11306,"salesperson":11307,"##annah":11308,"patio":11309,"quitting":11310,"posters":11311,"portfol":11312,"raced":11313,"presents":11314,"privile":11315,"toddlers":11316,"40th":11317,"reflect":11318,"skittle":11319,"offering":11320,"provider":11321,"rounded":11322,"duties":11323,"savannah":11324,"participant":11325,"wicca":11326,"miniature":11327,"ucla":11328,"vinyls":11329,"androids":11330,"stretching":11331,"woohoo":11332,"cramped":11333,"capable":11334,"relocate":11335,"spinach":11336,"joseph":11337,"priorities":11338,"sensitive":11339,"intellectual":11340,"sacri":11341,"bambi":11342,"aerosmith":11343,"politicians":11344,"suddenly":11345,"giants":11346,"vuitton":11347,"stairmaster":11348,"altitudes":11349,"tequila":11350,"portfolio":11351,"cout":11352,"dried":11353,"hoot":11354,"irene":11355,"ky":11356,"loos":11357,"mural":11358,"pines":11359,"vibr":11360,"wats":11361,"zach":11362,"##tail":11363,"##cle":11364,"##vents":11365,"##change":11366,"stall":11367,"faint":11368,"##sell":11369,"shady":11370,"shock":11371,"##opoly":11372,"tools":11373,"##oba":11374,"frown":11375,"sup":11376,"prevents":11377,"##olism":11378,"##ieving":11379,"exchange":11380,"##abolism":11381,"carve":11382,"mane":11383,"beth":11384,"twos":11385,"compens":11386,"afar":11387,"spelled":11388,"cheaters":11389,"mustaches":11390,"dix":11391,"toned":11392,"##ibu":11393,"##lings":11394,"passport":11395,"metabolism":11396,"monopoly":11397,"terms":11398,"waterfall":11399,"brownie":11400,"handling":11401,"candle":11402,"holl":11403,"salesmen":11404,"kelly":11405,"chefs":11406,"worthwhile":11407,"techniques":11408,"observ":11409,"deathly":11410,"condol":11411,"straighten":11412,"samuel":11413,"kindergartners":11414,"danit":11415,"lobsters":11416,"combine":11417,"scholarships":11418,"frying":11419,"malibu":11420,"versions":11421,"trekking":11422,"gfs":11423,"screw":11424,"whistling":11425,"stares":11426,"couponing":11427,"trendy":11428,"portrait":11429,"banging":11430,"bouncing":11431,"maintaining":11432,"domestic":11433,"guests":11434,"encounter":11435,"objects":11436,"crawling":11437,"roger":11438,"stroll":11439,"unaware":11440,"regardless":11441,"lemons":11442,"innoc":11443,"7ft":11444,"bong":11445,"kris":11446,"kesha":11447,"oj":11448,"ric":11449,"yoy":11450,"##mine":11451,"##aid":11452,"##ollen":11453,"##yards":11454,"##wi":11455,"##pical":11456,"thus":11457,"toms":11458,"##llar":11459,"whale":11460,"##arly":11461,"howls":11462,"stated":11463,"heming":11464,"chrome":11465,"##aki":11466,"dayton":11467,"carries":11468,"dement":11469,"##ively":11470,"tromb":11471,"swollen":11472,"##nel":11473,"flick":11474,"recall":11475,"glue":11476,"appeared":11477,"meth":11478,"thrown":11479,"barrel":11480,"superior":11481,"hangs":11482,"riddle":11483,"charm":11484,"davis":11485,"causing":11486,"elements":11487,"hospitality":11488,"remot":11489,"seam":11490,"yellowstone":11491,"northeast":11492,"##burg":11493,"fictional":11494,"couches":11495,"heavens":11496,"dangerously":11497,"danish":11498,"crying":11499,"gymnastic":11500,"stellar":11501,"texts":11502,"latte":11503,"quartet":11504,"pyth":11505,"pension":11506,"celery":11507,"##iasm":11508,"fulfill":11509,"adventurer":11510,"frapp":11511,"tailgating":11512,"wrecked":11513,"hundreds":11514,"interviewed":11515,"settings":11516,"widowed":11517,"cockro":11518,"enthusiasm":11519,"jacksonville":11520,"graceland":11521,"harmless":11522,"compares":11523,"kiwi":11524,"corgis":11525,"gnarly":11526,"cassandra":11527,"stabbed":11528,"muffin":11529,"stereotypical":11530,"vineyards":11531,"explosions":11532,"arrogance":11533,"substitute":11534,"##busters":11535,"hemingway":11536,"dementia":11537,"trombone":11538,"cum":11539,"dual":11540,"gw":11541,"mp":11542,"ned":11543,"nug":11544,"ox":11545,"tart":11546,"tag":11547,"ust":11548,"wakes":11549,"##iac":11550,"##ell":11551,"##dka":11552,"##park":11553,"##ku":11554,"##vich":11555,"##front":11556,"##oul":11557,"##eror":11558,"myr":11559,"myth":11560,"##eable":11561,"##meat":11562,"andre":11563,"sober":11564,"##isy":11565,"##ustroph":11566,"stared":11567,"gogg":11568,"atom":11569,"nost":11570,"noisy":11571,"##ookie":11572,"asap":11573,"playful":11574,"outback":11575,"##olulu":11576,"orwell":11577,"arre":11578,"delish":11579,"manger":11580,"##cia":11581,"twitter":11582,"##osexual":11583,"friendship":11584,"femin":11585,"classified":11586,"rockst":11587,"rockies":11588,"##tends":11589,"glen":11590,"sounded":11591,"reals":11592,"cro":11593,"horrib":11594,"poke":11595,"trio":11596,"autoc":11597,"fourteen":11598,"instruction":11599,"congreg":11600,"honolulu":11601,"sixty":11602,"dresser":11603,"filing":11604,"foundation":11605,"sorted":11606,"smokers":11607,"transfer":11608,"vodka":11609,"bullies":11610,"homosexual":11611,"presently":11612,"auditions":11613,"industrial":11614,"renting":11615,"entertainer":11616,"investig":11617,"evano":11618,"cents":11619,"pierced":11620,"ooooh":11621,"scotland":11622,"pulling":11623,"stripes":11624,"leslie":11625,"tasking":11626,"suffering":11627,"galactia":11628,"fetish":11629,"recruiting":11630,"claustroph":11631,"miguel":11632,"asteria":11633,"facetime":11634,"defenders":11635,"yankees":11636,"rambo":11637,"automobile":11638,"length":11639,"evacuate":11640,"dribble":11641,"micky":11642,"reserved":11643,"redneck":11644,"unloving":11645,"microbiology":11646,"electrical":11647,"nugget":11648,"feminist":11649,"horribly":11650,"evanovich":11651,"claustrophobic":11652,"apt":11653,"bakes":11654,"dia":11655,"dudes":11656,"ema":11657,"echo":11658,"ff":11659,"hte":11660,"ick":11661,"jaw":11662,"lest":11663,"nause":11664,"nico":11665,"og":11666,"ramps":11667,"tid":11668,"vom":11669,"yolo":11670,"##oise":11671,"##nia":11672,"##tie":11673,"##bear":11674,"##bler":11675,"##inct":11676,"##rett":11677,"tore":11678,"stun":11679,"hew":11680,"goody":11681,"##raines":11682,"##artney":11683,"##omed":11684,"outstanding":11685,"##allops":11686,"##aks":11687,"##ulus":11688,"##abella":11689,"##ilit":11690,"maywe":11691,"aging":11692,"##neys":11693,"feist":11694,"bund":11695,"ads":11696,"overbear":11697,"scallops":11698,"highlight":11699,"pheasant":11700,"description":11701,"instant":11702,"salty":11703,"##ptu":11704,"surfs":11705,"scient":11706,"babes":11707,"##ints":11708,"italians":11709,"delay":11710,"poppa":11711,"##quoise":11712,"dawn":11713,"slower":11714,"tastier":11715,"followers":11716,"edible":11717,"pengu":11718,"annie":11719,"invading":11720,"positions":11721,"turquoise":11722,"breads":11723,"benz":11724,"blindness":11725,"helloooo":11726,"stocking":11727,"recording":11728,"cabinets":11729,"dearly":11730,"adams":11731,"equals":11732,"mopeds":11733,"destress":11734,"pittsburg":11735,"jessi":11736,"mutant":11737,"taht":11738,"immature":11739,"hazelnut":11740,"analyze":11741,"cobbler":11742,"jaguar":11743,"foolish":11744,"swimsuits":11745,"lucille":11746,"trashy":11747,"vocalist":11748,"migraines":11749,"priority":11750,"mccartney":11751,"ritzy":11752,"tournament":11753,"swamped":11754,"bahamas":11755,"calzones":11756,"orcish":11757,"mosquitoes":11758,"calculus":11759,"nicole":11760,"tidy":11761,"mayweather":11762,"overbearing":11763,"cider":11764,"erika":11765,"gin":11766,"garth":11767,"jig":11768,"kib":11769,"kath":11770,"obey":11771,"sessions":11772,"tent":11773,"##mary":11774,"##ody":11775,"##nuggets":11776,"##try":11777,"##grad":11778,"##iping":11779,"##iries":11780,"##wau":11781,"##jamas":11782,"##bon":11783,"##bee":11784,"##atos":11785,"doable":11786,"lib":11787,"##kee":11788,"whoops":11789,"itching":11790,"soy":11791,"mee":11792,"##asing":11793,"stake":11794,"fairies":11795,"mole":11796,"alas":11797,"##cker":11798,"anyhow":11799,"##ighty":11800,"sufficient":11801,"spas":11802,"awa":11803,"mango":11804,"twelf":11805,"truely":11806,"##athize":11807,"lawn":11808,"pollen":11809,"bitch":11810,"milwau":11811,"easiest":11812,"riders":11813,"almighty":11814,"potatos":11815,"##venue":11816,"mcnuggets":11817,"tougher":11818,"blondes":11819,"copies":11820,"freck":11821,"shares":11822,"pajamas":11823,"sorta":11824,"comicon":11825,"lighten":11826,"elections":11827,"postal":11828,"walt":11829,"possession":11830,"closing":11831,"bullet":11832,"layer":11833,"systems":11834,"graphics":11835,"struggled":11836,"thrills":11837,"similarities":11838,"upsetting":11839,"affects":11840,"paddleboard":11841,"sympathy":11842,"springs":11843,"tanks":11844,"berry":11845,"diamonds":11846,"cluttered":11847,"niagara":11848,"breezy":11849,"seashell":11850,"galleries":11851,"##yyyy":11852,"finalizing":11853,"kiki":11854,"egyptian":11855,"gelato":11856,"encountered":11857,"mamm":11858,"schedules":11859,"horton":11860,"tortillas":11861,"slavery":11862,"currency":11863,"bourbon":11864,"jeremy":11865,"initials":11866,"multitasking":11867,"twelfth":11868,"milwaukee":11869,"bise":11870,"dick":11871,"fert":11872,"hating":11873,"jed":11874,"jockey":11875,"kook":11876,"nu":11877,"nons":11878,"pity":11879,"saint":11880,"##rina":11881,"##iard":11882,"##eur":11883,"##ecutive":11884,"##cure":11885,"##hers":11886,"##date":11887,"##bor":11888,"##ffe":11889,"##friend":11890,"docks":11891,"invis":11892,"##isitive":11893,"stain":11894,"stables":11895,"shiat":11896,"chet":11897,"chos":11898,"alway":11899,"coffe":11900,"someones":11901,"fris":11902,"spike":11903,"##ortal":11904,"executive":11905,"brisket":11906,"seeker":11907,"##belie":11908,"hearts":11909,"prettier":11910,"drone":11911,"agric":11912,"unbelie":11913,"overdo":11914,"ques":11915,"skull":11916,"brewer":11917,"##nging":11918,"craig":11919,"freezing":11920,"walkers":11921,"lele":11922,"winery":11923,"realistic":11924,"disasters":11925,"stroke":11926,"101":11927,"togethers":11928,"crew":11929,"camaro":11930,"terror":11931,"pots":11932,"gyros":11933,"snowy":11934,"photographing":11935,"beaten":11936,"holes":11937,"laughed":11938,"politically":11939,"roomage":11940,"bobcat":11941,"fashions":11942,"smelled":11943,"obscure":11944,"decorator":11945,"2007":11946,"investor":11947,"smoothly":11948,"lounging":11949,"bubbly":11950,"qualification":11951,"devices":11952,"linda":11953,"scarry":11954,"critters":11955,"sunscreen":11956,"immortal":11957,"carnival":11958,"bertha":11959,"pineapples":11960,"360":11961,"patton":11962,"ragtime":11963,"intolerance":11964,"academia":11965,"rehearse":11966,"wyd":11967,"julie":11968,"upgrade":11969,"fictions":11970,"chiton":11971,"horizons":11972,"rehab":11973,"inquisitive":11974,"conspiracy":11975,"bisexual":11976,"nonsense":11977,"shiatzu":11978,"chosen":11979,"coffees":11980,"agricult":11981,"unbelievable":11982,"92":11983,"ain":11984,"bailed":11985,"ellen":11986,"ia":11987,"jb":11988,"kinet":11989,"mat":11990,"rach":11991,"wire":11992,"yarn":11993,"zip":11994,"##zi":11995,"##ios":11996,"##cest":11997,"##cup":11998,"##py":11999}}}