[UNK]
[CLS]
[SEP]
[PAD]
[MASK]
!
'
,
.
0
1
2
3
4
5
6
7
8
9
:
;
?
_
a
b
c
d
e
f
g
h
i
j
k
l
m
n
o
p
q
r
s
t
u
v
w
x
y
z
ß
##m
##a
##z
##o
##n
##s
##u
##r
##l
##t
##g
##i
##e
##c
##h
##d
##y
##x
##6
##0
##w
##p
##k
##j
##v
##9
##4
##b
##f
##q
##8
##2
##3
##7
##5
##1
##_
##ß
##ou
##in
th
##er
##at
you
##ing
##re
to
##ve
do
##or
##ll
##nd
##es
the
my
is
##an
ha
##ot
li
am
##ke
##ea
##on
##oo
wh
##it
##ow
##st
##me
##ay
that
##ar
have
in
it
are
like
##ic
and
##en
##et
lo
##ut
##ed
so
not
of
##ch
what
##ld
be
for
on
love
##ers
how
##ood
your
##gh
an
me
we
##is
##as
##le
##id
wor
##ust
##om
##ly
st
##al
##ere
he
fa
##se
work
##ri
but
good
##ith
##ould
##erson
person
just
sh
with
rea
##un
##ra
go
persona
##lly
hi
##ool
##ver
at
##us
##art
##ght
pl
##ite
##op
ne
##out
##ear
mo
too
ab
ch
al
co
can
##ce
##ur
about
no
gre
some
##th
##ill
##ice
##ob
##ry
##nt
##ck
##ir
##ad
any
fav
##nds
oh
ti
##ee
##ter
##ant
favor
well
##ook
##ight
fr
##ake
favorite
get
was
yes
##ct
as
great
would
part
##est
##ion
##ner
all
cool
doing
##ome
su
sp
##ies
nice
from
play
time
##day
##oy
out
##ish
they
en
there
##ind
really
fun
##im
sou
partner
##ge
##all
##ery
##ate
##ent
##and
##am
##ink
##ame
dog
lot
##are
will
live
##ine
mus
its
##her
##ak
music
today
##llo
up
hello
day
read
very
one
sounds
##ess
yea
mu
re
##ough
ever
them
##atch
when
kn
want
eat
aw
kid
##one
##ally
##ving
pre
than
##rie
##joy
enjoy
##tt
much
now
sch
cl
##if
got
##ol
##pp
yeah
watch
know
or
school
going
##ul
pr
##ort
##ong
been
##ie
kids
where
##each
job
com
##lf
##ig
lol
think
##ain
ex
##au
##thing
ar
kind
##ab
##ide
tra
##il
wow
she
##ore
##ack
cat
##ting
car
food
se
year
bl
make
did
br
##so
##wn
de
##ays
##ist
##ast
ok
frie
te
also
##ue
##ree
##ud
us
##os
thing
##ily
##ass
fam
##ning
man
see
##ive
more
could
##be
pe
##ci
bet
##ope
this
new
##lor
thank
may
try
mar
old
##ian
dogs
every
gu
cook
##vel
##esome
##fe
though
awesome
home
##lle
##ha
##obb
here
cou
never
if
hobb
only
##self
should
##king
hear
##um
tr
colle
teach
family
##res
##ets
tw
##lp
need
right
prett
pretty
sure
help
mom
name
bec
peop
list
##ation
sw
inter
maybe
people
##ild
##pe
##ways
##ard
gra
listen
hey
##ff
book
does
always
had
act
##og
hope
##ried
take
mov
##eg
##nts
##ag
##ac
most
dri
##other
##ose
travel
color
##ball
sor
living
sorry
##nder
con
##oth
har
##ause
best
stud
long
wish
##uck
##iz
##ually
anim
dr
why
sing
haha
veg
wee
bus
##ous
own
off
animal
interest
hobbies
life
##ity
run
college
comp
ag
two
int
somet
af
##aking
look
wr
##eal
##akes
##eel
eve
##ames
because
##ang
pets
years
##ap
who
friends
ro
##ather
pare
##ance
mine
hard
gr
##ren
working
##oc
##fer
spe
##ne
##mm
back
fe
being
tell
##mp
then
fish
##les
##eep
hou
che
parents
big
things
##alk
##imes
sometimes
her
show
interesting
child
oth
feel
into
rel
cats
##ment
still
count
##ful
sm
by
hair
anything
watching
bu
far
many
bad
married
dad
must
sport
after
has
drive
##ound
##oot
keep
##ure
shop
ad
##cc
gir
##ia
##ick
reading
##ress
thanks
##ile
##ead
##ors
litt
animals
other
little
way
night
di
sa
art
##az
un
games
ton
##ince
##oney
over
##izz
happ
pizz
okay
sc
class
band
movies
pizza
##red
##ep
qu
care
##ich
##iting
since
hate
country
money
myself
playing
##ib
better
bas
##per
used
hus
start
##ace
sports
red
friend
getting
##ary
yourself
books
come
high
pain
dra
plan
cann
actually
prob
vide
sk
fin
boy
tonight
stay
##ons
el
cannot
something
fl
##ling
husb
##ream
drink
grad
##ife
blue
those
foot
husband
whats
guess
say
weeke
par
##ese
study
lear
##age
bre
##orn
mostly
pro
##ert
find
busy
ph
rock
##anc
wife
##ng
##ater
wo
swim
lea
him
spend
es
##ft
children
while
around
move
##ping
beach
else
fine
even
trying
under
meat
young
cra
##our
##ax
bo
##ny
##ket
##ach
##ise
swe
makes
free
city
##ms
tv
##ip
wa
girl
##ub
##aught
##te
##ph
same
ret
use
game
vis
teacher
##ute
##ated
house
walk
##eak
cur
eating
were
##cially
##fore
football
before
##ple
video
pass
sist
rec
prefer
##alking
tea
true
sur
##ealth
meet
##ten
mor
bea
##ought
fir
##pecially
##ix
especially
##ked
farm
done
##ath
##own
ty
looking
cooking
last
our
dif
##ost
vegan
##iv
wonder
le
morning
soon
##ble
##ably
world
gl
finish
relax
la
app
luck
##ical
win
##ork
##get
listening
##iss
once
##uff
probably
##cial
movie
##ber
##riend
week
underst
mother
imp
bi
health
sn
place
mad
gard
both
learn
garden
amaz
down
##ious
beaut
dance
##ans
visit
##ict
met
ll
grand
##iness
per
##ond
went
yet
three
cars
understand
mon
ma
eng
sound
rest
store
pur
sad
sle
cal
##hing
hun
coff
##side
call
coffee
real
##ount
which
##eas
##up
sweet
draw
hot
##ire
might
happy
dis
exc
write
##xt
his
few
des
##ence
##ations
first
green
##able
stuff
##el
##ics
business
thr
##llow
##ange
cr
inst
bel
##erg
##ime
jo
brother
sleep
##ogra
amazing
##gg
black
##ird
taking
hor
heard
student
##rent
sal
weekend
current
bar
wear
##na
##mes
lots
usually
small
##ican
##ctor
their
chic
##dy
fast
super
next
away
fan
give
truck
ride
loc
##mmer
everything
nur
funny
po
shopping
hu
tall
studying
bit
##man
late
def
veget
acc
often
##pen
##iful
differ
beautiful
##arian
comput
##oss
having
##ither
days
##ma
hang
med
##zy
chat
times
talk
making
nothing
##ah
##lish
##ract
id
##kes
wait
##ating
fishing
buy
cold
##ash
miss
ser
break
currently
guit
##att
guitar
##ming
near
hobby
##erc
enough
different
paint
sib
##ieve
##br
summer
str
hour
month
single
##ys
running
outside
sell
grow
ind
compan
son
hiking
mean
##line
ready
##my
##ps
law
evening
sibling
##pt
ear
finished
alone
din
allerg
short
daught
pet
defin
collect
crazy
seen
10
sec
prof
dream
sister
named
##ord
mil
ra
danc
##ions
eas
##aur
made
cant
toget
siblings
wonderful
##others
basket
##oes
comm
together
##ently
started
##ull
ago
park
definite
definitely
##yc
gradu
healthy
alot
let
restaur
restaurant
mind
##ken
##land
##ings
profess
weather
sit
company
type
purple
##ired
close
helps
##act
either
conc
online
believe
ten
basketball
##pl
ey
happen
train
ice
ah
local
yog
##ocol
socc
cute
chocol
##ature
chocolate
soccer
##wh
##do
##urn
father
fall
base
##ats
cour
exerc
##ail
cheese
##io
yoga
vol
##oring
cloth
##ries
##ones
brothers
relaxing
##bs
head
supp
surf
thinking
put
artist
sci
works
agree
##ory
bab
gen
res
cre
ball
team
wanted
quite
mex
spare
yours
profession
##int
tom
past
tri
deg
recently
cam
talking
##ures
im
##ult
bake
thought
##ates
##ier
##ign
flor
##alian
##fu
##key
italian
speak
girlf
least
computer
##ru
cle
concert
##hip
hike
loves
##ady
nurse
##bo
tired
ter
##ro
fren
florid
glad
rid
outdo
sun
alm
someone
florida
water
##where
winter
volun
york
del
##ew
older
exercise
##olog
char
dinner
volunte
moved
pay
swimming
shows
pract
##du
phot
##ank
almost
french
##een
##ect
degree
##rible
brown
left
idea
pop
rather
##ward
volunteer
pot
bike
writing
gy
passion
again
baseball
hur
##oke
##qu
##co
office
aut
song
##00
rap
walking
hors
horses
driving
##air
boys
boring
cream
chicken
hours
weird
full
exciting
gym
nor
pink
##let
##iforn
californ
pian
imag
da
##right
##cks
california
seas
weekends
##ush
four
tre
##unch
girlfriend
star
rain
dec
##ited
##fect
##ins
boyf
lang
langu
outdoors
party
roo
ca
tried
course
canad
clean
##ica
another
import
ap
piano
##uring
pol
boyfriend
tac
##fully
ins
cake
stress
maj
##ts
vi
don
yum
##ding
##uit
##ds
war
retired
dancing
##oman
social
english
pick
diet
important
daughter
sl
age
cont
amer
guy
tot
cons
bra
asking
tenn
jap
##ograph
sub
japan
##way
through
clothes
novel
lost
##fort
traveling
##ness
bed
lucky
woman
##ables
hand
##ger
##rist
grade
nope
vegetarian
##cept
##no
libr
##aces
##ums
ge
state
steak
vet
hop
##vy
##unk
played
##ty
fore
jobs
kinds
girls
build
during
##ition
proble
##ald
everyone
##ible
nature
born
mount
stop
imagine
season
##mber
##row
##als
leave
huge
##fl
plans
ya
instru
##azz
##ockey
cong
doctor
gets
##ta
cand
jazz
pu
scare
beer
club
allergic
sisters
hows
##ron
att
deal
hockey
ones
such
lake
open
##ject
painting
five
##oice
account
christ
##tend
tex
early
become
##ced
canada
main
easy
##lling
stand
congr
eyes
min
enjoying
came
##ages
bring
tast
apart
keeps
hon
grew
fant
smart
bur
##ital
god
##ever
##ular
##ills
tech
classes
vac
less
##sing
##ven
tennis
##vor
##ense
worked
mid
tatt
##ney
mag
turn
ac
major
pub
##tu
mountain
mc
##ted
tattoo
alright
hanging
##orrow
##ark
20
fit
bought
scary
##less
teaching
each
egg
ext
bir
died
pict
hos
hosp
##ret
perfect
along
riding
months
hum
drag
birth
muse
metal
someday
sick
career
##ease
names
instead
##iet
said
seems
chur
church
ele
took
##dle
anyone
##ative
horse
##ically
##ower
sout
##ology
tough
groc
##mer
##pes
end
hit
##ves
chatting
practice
feeling
baking
##unate
##ump
stor
bear
oce
feet
six
check
gotta
hospital
ye
able
rem
places
graduated
##ti
ask
foods
wed
hopefully
##ident
neat
science
blond
lives
learned
special
tomorrow
##vers
walks
town
vegg
##ude
texas
intern
ho
these
everyday
fruit
relations
kit
singing
abs
##igh
##onna
learning
cor
dress
baby
ocean
wrong
##sh
taught
##ww
##ane
ce
sucks
shel
lovely
seem
takes
##sive
cas
terrible
fil
news
inc
##by
sea
hunting
shoes
##ored
ski
##tube
sim
fly
##olin
youtube
apartment
##loy
snow
##resh
##olute
absolute
please
vacation
mexican
##ield
meal
##mploy
later
mod
org
fresh
orange
totally
impress
fo
catch
air
change
relationship
face
##ape
dy
##ces
hmm
weight
##more
cop
trip
huh
##vent
likes
compet
##ivers
cut
anymore
lar
army
grocery
problem
pool
lived
##ize
adop
##ments
##ago
famous
player
lets
##erman
ner
loved
##gry
##yle
pri
##ike
afterno
chicago
##ues
gam
progra
sush
##icious
##ants
fight
math
coming
novels
sushi
dead
candy
tacos
##work
##lls
unfort
unfortunate
rais
design
set
divor
pictures
afternoon
concerts
lately
lau
pit
##ready
already
delicious
vegetables
photograph
##don
languages
mot
##ities
absolutely
##ico
writ
beat
##ides
##oud
secret
sme
fix
hist
won
classical
honest
save
mcdon
mcdonald
unt
bes
##ift
##vice
lawy
drinking
yep
gone
sometime
yellow
sund
hoping
side
aff
cart
##anic
saw
area
expen
whole
mainly
retire
sew
follow
##dd
##ider
##rot
fre
##son
sitting
reme
add
passed
sales
##ient
##amp
ent
professional
##ertain
called
except
birthday
##fic
south
younger
bank
kinda
videos
##gers
eggs
ow
##ote
extra
blonde
##ction
boat
glass
until
drawing
bak
##ids
rom
##ks
hol
share
##vis
found
##lo
waiting
ny
##ror
neigh
neighb
remember
ke
guys
##iction
##mas
expensive
ed
stra
pasta
exact
pen
##ama
north
surfing
scared
cookies
chef
lab
phone
veggies
tal
anime
##gin
##ycle
engine
lunch
ann
bow
laugh
nah
pa
je
gonna
american
camping
bro
couple
##raid
afraid
pie
apple
top
rich
##atur
ford
fave
without
history
##though
excited
##que
##rill
broke
##duc
aust
##ock
although
net
stories
moment
cow
rad
kill
accountant
nail
shelter
##board
sort
##anger
ath
##lete
fig
##pper
self
em
##itary
german
##omen
rob
classic
##bur
second
##anna
##ade
hunt
30
smo
coast
christmas
workout
besides
inv
large
wild
polit
##ster
univers
fol
military
women
##its
heart
kar
lady
salad
##cy
bud
##fast
sense
##der
spending
exper
middle
says
##ual
##ton
##ween
ballet
pap
sy
##atoes
attend
wedding
bills
dist
##owers
fries
##led
educ
##ave
breakfast
auth
##mployed
violin
##book
impressive
daughters
hallow
marke
daily
date
rep
chin
clim
mexico
##ped
##ied
halloween
mich
van
road
fat
between
cause
dragons
##gu
helping
##aly
ass
cup
##ugg
##iver
##back
##sy
chance
thrones
room
fair
desig
tho
publish
engineer
told
diffic
difficult
bird
##ston
bob
##ands
goes
##de
factor
leg
comic
marketing
singer
grou
unfortunately
ran
field
happened
fash
afford
activ
##ines
glasses
lawyer
wanna
rough
wind
##hol
states
##ancy
holid
##enty
##igan
insp
av
##ior
pat
tend
fema
female
reci
tattoos
interested
accident
worth
bac
sever
##ites
fashion
race
##ices
iph
geor
##ky
hungry
tour
##orm
gener
computers
ham
die
several
##reet
talent
moving
michigan
nails
wine
raised
bacon
story
horror
climb
##cer
lif
photography
worry
planning
growing
shower
na
consider
zoo
plays
techn
writer
library
paris
graduate
fantas
allergies
reg
##essed
join
trucks
factory
liter
taste
##rican
##ouble
##ational
drop
mountains
##ens
12
librarian
magic
##ss
tele
model
##ino
makeup
dep
youngest
##ili
sky
box
poor
dish
##inc
const
stick
span
##earch
##pect
##flix
netflix
fut
##ring
trust
##ai
remind
colors
support
white
quit
comics
##umb
songs
iphone
future
smell
ate
hurrican
carto
##rimp
shrimp
exactly
fer
experi
www
comes
fiction
##astic
choice
##uss
anyway
commun
safe
pig
saving
theater
quiet
obs
common
##entist
##gy
market
eye
flowers
advent
veter
wood
tun
clown
nursing
yummy
congrats
##atul
produ
chan
meant
pupp
skate
cu
##haha
cakes
horrible
divorced
university
conf
disney
##lic
##etti
awful
congratul
sons
step
needs
norm
craft
gardening
spa
wants
poet
cleaning
blog
warm
shape
##ial
moms
seven
acting
##ls
eur
europe
voice
reason
##ghetti
spaghetti
grandp
congratulations
san
##asc
lone
street
anywhere
others
spanish
reward
language
men
pos
active
adopted
##ention
museums
dark
##gue
pea
sunday
joh
ori
si
iron
male
cali
foc
peace
##ooked
##tery
john
types
spent
actor
##attle
##vert
19
order
mac
alab
##och
liked
whatever
focus
king
miles
internet
adm
##acter
soft
feed
inde
18
mast
ros
strong
##chool
##gs
light
ener
pack
blood
alabama
author
pleas
lose
cost
usa
motor
everywhere
character
trans
chill
style
##iring
students
##uts
##umber
fantasy
bal
elect
apples
group
land
##ouse
medical
boot
##tle
trouble
##ota
ir
line
col
vo
mary
##ove
gun
##ires
looks
comed
##itive
occ
post
goal
##ager
goo
skin
personal
genre
suppose
allow
arm
twins
power
twin
##da
serious
##ars
##0s
##oph
##ache
police
stressful
##ator
hurt
mcdonalds
##ots
milk
##ctors
depe
cri
##iving
wheel
mech
wearing
collection
italy
firm
america
education
##ont
death
##ana
##airs
iss
##body
france
watched
##gle
favorites
relig
laz
harry
gold
training
mustang
partic
##oped
knew
cheer
port
cele
##ights
figure
wal
cancer
rewarding
##ising
doctors
dude
ju
quick
taco
poss
ur
body
fantastic
couch
jokes
lazy
fire
sand
plus
lonely
radio
pray
arch
boss
knit
forward
aww
dancer
jam
mess
##antic
strange
##com
##ari
driver
##ral
##food
liz
somewhere
seafood
mill
cult
croch
creative
crochet
forget
frid
poetry
bum
##ric
series
seeing
grandm
parrot
##ards
terri
boots
##ndon
trees
motorc
yo
expl
clos
ve
seattle
bull
russ
station
musician
annoy
celebr
certain
##stery
roses
marath
fla
waitress
cash
hands
grill
##rest
comedy
designer
organ
fancy
rac
##icer
psy
psych
plenty
channe
london
visiting
instruments
hom
service
chinese
turned
adore
tur
##ters
##ears
drums
test
ugh
det
starting
unless
junk
##roo
ther
instrument
##hahah
##come
##bt
mall
ru
##ses
bee
camp
roomm
roll
prom
cartoons
shoot
pays
politics
##child
board
grandchild
subject
indeed
##ale
shy
west
ahahah
las
##ler
building
skiing
traveled
easier
contact
quest
pic
##ism
spring
stuck
invol
navy
##ized
##ients
east
##icing
##med
bible
oper
##pher
favour
space
##ado
##iew
honestly
neighbor
##time
card
shift
##ffic
cab
means
dreams
puppy
##iny
lessons
##lt
tut
bored
##mentary
energy
grandchildren
##set
vegas
gives
experience
cards
##ucks
casino
channel
create
wel
bell
mix
fried
bread
grandmother
25
medic
##vous
exp
##state
##iety
butter
neph
romantic
nephew
hold
hmmm
hurricane
15
##form
##ved
##arely
odd
##app
recipes
pepper
boston
nervous
##vett
##icy
fact
##gia
favourite
sign
door
mem
meeting
ore
potatoes
##reci
soda
ben
point
bass
##tern
museum
ob
beauty
product
simple
plants
pres
barb
##hood
wall
cond
veterin
therap
lead
staying
alco
appreci
mechanic
alcohol
##rit
beard
paper
gh
opp
facebook
origin
cir
##em
gas
##tles
##urance
homework
jim
##go
dire
sunny
straight
cho
kay
worker
asp
slow
ohio
proud
sleeping
kat
ange
personally
selling
##eaking
welcome
circ
bands
##gn
##atter
cru
superher
trave
depends
insurance
dye
sam
golf
hip
##ka
##mmy
decor
##ase
became
##oop
meals
16
hond
gross
grown
coach
practicing
satur
anx
##ided
justin
helped
baker
saturday
national
om
speaking
sadly
complete
smoke
##ansas
televis
hea
using
folk
match
##era
mystery
##ility
clothing
danger
curly
viking
public
bill
none
##pons
jour
happens
issues
snack
##oose
coll
research
sewing
disapp
jeal
env
japanese
jealous
civ
##we
##isc
##cha
##dog
athlet
honda
due
throw
tutor
##ging
media
climbing
dating
haw
traffic
gave
eh
reminds
lu
colorado
##irt
manager
scr
potter
cree
nyc
##kets
forever
enc
employed
rose
lover
officer
event
skateboard
elementary
neither
blind
##osed
corvett
##mend
##ency
ghost
aud
restaurants
crime
stink
stones
manage
phys
beatles
mars
golden
jack
mart
##terday
yesterday
youre
dangerous
##ey
lift
oldest
deliver
##gar
chi
indust
##lie
##ware
##ina
##ific
retail
photos
television
toes
##cell
hous
goodness
grandma
priv
200
soul
breed
obsessed
##ison
##orable
snake
##pr
snakes
ire
literature
ireland
reader
twice
punk
##rol
bakery
gig
une
##col
alive
advice
finally
cust
sau
nights
##gery
hipp
surgery
popular
austral
australia
##ley
plant
##vest
depress
den
kansas
pi
prep
kitch
general
eight
##bit
##ram
project
tar
superman
masters
sen
community
envir
parties
send
regular
hates
chip
careful
kitchen
action
parks
wrest
trail
deep
keeping
scen
veterinarian
mile
silly
homes
beans
particular
##nal
##ems
chea
kinderg
drinks
hawai
kindergart
mer
human
assist
chevy
flo
indian
er
toy
##itch
motorcycle
suck
14
loving
actress
et
decided
accounting
##usting
excell
grandpare
excellent
plane
tou
##atural
opera
corvette
donate
paid
nose
sweets
dragon
ou
england
dropped
occas
houses
diving
bart
##ives
##ulous
skyd
normal
rocks
##itions
spir
spicy
spec
##arious
##oming
runs
fu
google
##ned
##ycling
treat
bunch
chang
hawaii
pump
collecting
ast
bing
private
##like
holiday
etc
industry
peaceful
appreciate
journal
bars
exha
smile
million
pil
##onment
##ops
##burgers
tuna
##ato
ferr
form
brit
nie
kidding
salesman
lifest
blame
longer
##apt
igu
charlie
christian
kindergarten
george
##cake
todd
50
highs
adopt
jane
custom
##pped
cross
karate
lifestyle
forest
knows
teachers
films
environment
##oid
gree
babys
burrit
dan
##haps
perhaps
worried
track
problems
key
guns
disappo
fi
league
##hear
##ural
##irty
sugar
athlete
rent
dess
entertain
dessert
wrote
leather
half
princ
bb
##gon
passionate
holidays
cry
hell
arts
ahh
handle
juice
unemployed
non
prius
parent
low
##cu
worst
phil
dou
jew
##ique
highschool
babysit
number
role
babies
bout
acr
kitten
film
flying
georgia
stock
woods
##min
romance
lim
teaches
##inary
inside
trips
##aa
devel
flower
constru
tic
##mart
neighbors
question
senior
assistant
sol
incl
gar
lay
lottery
biking
chili
adorable
stores
jer
mort
##ppers
##ains
recom
brand
annoying
pon
however
occasion
fing
##ician
##tim
dads
baltim
religious
portland
baltimore
size
fasc
##ze
##round
pretend
basically
grades
burger
fascin
scientist
##ounds
bigg
surpr
earl
##room
vir
comfort
folks
travelling
commer
steph
recommend
washing
##iance
telling
feels
anxiety
walmart
##bucks
starbucks
program
subur
pleasure
sar
compl
honey
que
##anta
##abet
reality
chickens
agre
##wer
rolling
##od
heights
sched
professionally
attention
straw
across
40
words
drives
pigs
##lley
stars
17
frank
carrot
saying
circus
21
loud
##iry
##iam
##aged
panc
##he
moon
pumpk
mmm
pand
united
baked
dea
nap
reach
grands
omg
becoming
opt
##fish
unic
owl
cruise
front
grandparents
retrie
earlier
pregn
pean
nephews
dam
tables
##fy
invest
marri
bye
strawber
yup
esc
natural
##wards
jewel
##urity
finding
technology
pies
##over
bummer
bie
losing
pilot
commercial
bieber
grass
reject
##aring
awe
300
dig
tax
##ern
located
jewelry
lizard
construction
##zz
needed
##ule
choir
dang
unc
gosh
gaming
certainly
fest
tiny
##mon
##lies
forg
interests
raise
adventure
mic
##oh
##corn
##pping
intro
fell
popcorn
burgers
volley
superhero
sold
surv
metall
subway
cos
typ
buying
bbq
prop
hotel
divorce
##wood
##arth
chess
##ealthy
athletic
spot
friday
products
sil
lob
ans
fab
##verage
racing
sauce
corn
##can
anti
tons
##list
horseback
activities
inspir
airpl
constant
ep
emp
sugg
volunteering
suggest
##wich
##read
##oooo
freel
smooth
sandwich
marathons
deaf
mans
perry
musical
disab
joke
tomatoes
stephen
##ged
serve
avoid
marriage
clear
peppers
security
##vin
dor
finance
##ologist
##ographer
india
ways
##otic
##aska
##omy
##ille
agency
handful
##amps
enjoyed
syst
distract
disco
matter
##idence
thankfully
ranch
metallica
dentist
medit
jud
rural
spid
nfl
##ety
doubt
chew
finishing
##omb
schedule
##ban
clients
agreed
cooked
##oni
word
pancakes
fort
##af
thinks
brain
kara
flu
perform
##iliar
boo
possible
pounds
skills
grandk
toyota
fabulous
pair
squ
##ship
third
whis
bulldog
beef
marry
bath
##ba
requ
competitive
sundays
##ien
desert
hy
lou
vamp
studies
visited
cashier
jump
pood
##ilar
trick
sweethear
##lex
ev
##cue
##reme
temp
weeks
##head
situ
software
doll
##ows
familiar
attract
discover
gay
hurts
princess
dyed
gamb
engineering
mood
choose
brownies
ec
##ania
bub
biology
karaoke
island
graph
foreign
accept
journalist
wings
##house
programm
cuis
grandkids
nick
##nes
unique
##ubby
comedian
##utes
estate
mike
worries
stressed
clubs
russia
nuts
##mo
dem
tickets
washington
##zel
##wise
mush
brun
##lead
worse
broc
penn
organized
chall
100
fitness
challen
bat
electric
condo
##jack
cheap
disappoint
programming
elvis
extreme
yuck
knee
pregnant
bright
taken
relate
##ophy
civic
rul
franc
conne
buddy
biggest
system
iced
prince
disc
originally
##coli
broccoli
cent
birds
spiders
halo
##isco
cheerlead
touch
gummy
##ccess
oly
ze
ref
skit
finan
jog
bage
trump
virgin
strugg
carrots
ko
##ville
##field
cheesecake
medicine
brew
complain
festiv
lobster
comb
minutes
26
olymp
beets
proc
broken
ink
##llywood
guard
published
bon
cheet
constantly
ooh
##cakes
##itor
##iled
barely
record
earth
##to
thri
items
##rib
atl
carolin
friendly
salads
ouch
dry
##riends
katy
ferrari
bun
##asty
brought
advert
farmers
roommates
burritos
##west
los
expect
##ucky
drove
talented
23
indie
sarah
angry
countries
breath
trains
bears
irma
graphic
gal
success
contacts
nasty
##ker
##unge
alaska
carolina
bald
ideas
easily
paying
cupcakes
schol
childhood
comedies
##rated
souther
fingers
##pac
##lled
alb
belt
taller
wars
owner
35
blues
amazon
##pap
exam
planes
scratch
fear
hil
##geous
candles
tasty
magaz
completely
ol
trainer
stopped
sus
##vious
##ental
river
##ium
prot
hollywood
flavor
kayaking
virginia
mention
##hop
similar
fif
jas
yard
##oe
##ikes
##illa
furn
view
##oun
spain
sweetheart
peps
develop
rules
pepsi
gor
overs
fruits
##arship
scholarship
du
##hh
drum
meatlo
meatloaf
wives
##ination
winning
newspap
repair
position
freelance
##used
##ckles
##cious
##arm
involved
target
poodle
jac
stamps
runner
bikes
diner
fart
crafts
physical
thrill
coke
potato
weak
##met
engaged
strict
addict
clowns
employ
events
headed
raining
##ius
cover
nut
vint
beh
##ashed
heavy
vintage
dirty
fiance
miam
##care
##hic
dishes
miami
oil
rare
schools
owns
internship
answer
bugs
##arks
veggie
organic
audition
francisco
southern
joy
page
calm
volleyball
32
desp
barbe
retirement
11
##father
##iture
##balls
diabet
caf
recipe
furniture
kale
nach
shot
trade
convers
##ahu
cows
robot
##pin
wash
prote
behind
##hile
habit
soci
awhile
normally
wake
case
eag
giving
whenever
pod
gymn
bowling
sty
cooler
oregon
philos
average
tips
gotcha
##ista
buff
rainy
canadian
cen
lie
##ared
sex
instructor
sorts
cabin
pierc
center
pants
jello
##ials
##ories
deb
##rove
burn
##esse
##ences
socks
beers
ted
##illed
pride
carry
##ibly
madonna
connect
##amed
therapist
barte
fascinating
kent
wisc
trad
##onsin
##order
smoking
seriously
unicorn
wisconsin
80s
rand
ste
studied
offer
farmer
purse
rice
inspiration
nachos
blast
##rup
##cast
##aters
salon
##ycl
##acters
characters
##ronic
ut
speed
##ined
eater
maine
braces
nerd
knitting
lasag
##sa
bless
##uba
photographer
china
models
oppos
##anes
howdy
louis
24
search
studio
mansion
kentucky
fur
##arn
motiv
protect
known
spelling
barista
roommate
protein
dear
luckily
dislike
eventually
pickles
um
trained
lasagna
##iling
freak
##umbers
philosophy
loss
understandable
ach
##ume
##otion
crow
heading
russian
stinks
strawberries
bruno
hilarious
pal
tit
camera
against
creep
bagels
cred
sour
designing
grandson
bic
sight
##bl
dru
missing
respect
gorgeous
picture
whiskey
podcast
##uahu
201
bot
dust
##dings
allergy
bowl
voices
oc
uh
##view
shame
##izing
##aps
daddy
ocd
preach
sunset
broad
james
ven
greet
legal
chilling
lapt
hikes
##ilight
teen
twilight
leaving
floor
##rect
creating
pug
dolls
spo
prov
wondering
entire
flav
ghosts
overseas
##anas
altern
cell
cuisine
path
##healthy
##fied
##itect
counts
unhealthy
girlfriends
architect
bene
jun
till
##ala
painter
exhausting
escape
##ession
wheelch
newspaper
control
wrestling
gymnast
rights
##ances
income
competitions
grandpa
recover
putting
champ
fighting
colored
lord
awww
homeless
programmer
forgot
##ode
political
roller
spirit
mis
spears
gotten
advertising
snowboard
credit
secretary
uncle
random
000
dental
hero
fund
ver
vanilla
encycl
encycloped
cud
planned
##play
transl
retriever
judge
##obi
gum
adam
autograph
killed
turtles
equ
moped
pad
##ees
##urs
##ictor
##road
mines
weddings
compete
laughing
fry
bm
mist
beats
meatballs
earn
5th
tab
##ised
outdoor
hamburgers
merma
disabled
jan
nin
##ionist
airplanes
ooo
skittles
##huahu
##atures
husky
198
chihuahu
qual
pharm
commute
budd
avid
opposite
dest
webs
goods
shops
angeles
60
##ades
##tsbur
pittsbur
nasc
anyways
rides
correct
nascar
ban
kiss
mur
##ury
##lph
psychology
##nic
##ctic
enjoyable
ages
marathon
weed
brings
professor
decent
decide
total
turns
publishing
specif
mal
##ca
scot
purs
thoughts
campus
depressed
spouse
legs
archery
nieces
mass
table
sweater
cafe
rude
based
tennesse
direction
hubby
houston
literally
jimmy
extremely
wheelchair
ring
yikes
lion
chair
twenty
beaches
midwest
religion
##viously
clou
winters
explore
therapy
survive
tennessee
stew
britney
thrift
gri
##rs
inj
shall
commit
incred
specifically
rarely
##fit
bmw
steel
heck
exotic
deer
adult
reside
ara
##iant
member
rapper
cowork
aqu
jess
opin
parts
puert
##inos
##eth
chas
inte
##la
thurs
##ntly
vegetable
stranger
indo
raising
comfortable
caught
lad
nation
vera
##dream
tofu
attor
damn
helpful
nearby
raw
supplies
dairy
dying
martial
bf
##ief
calls
steaks
includ
gif
sat
##port
gover
relationships
broadway
iq
looked
##ette
##che
##lder
upset
financial
round
shirt
wanting
text
appare
paintings
pull
var
crash
dressing
weights
diego
##ners
shell
positive
##ictorian
thursday
farms
##ira
##ortun
agent
opportun
ped
stri
supposed
dj
jen
orph
competition
quickly
iguanas
puerto
cure
link
lame
wast
##vey
daydream
##ardy
alternative
apparently
cycling
val
wide
chase
orle
faster
master
rug
kittens
vampire
lat
tail
fake
##ada
drama
respons
pumpkin
attorney
toys
##nding
scout
toto
austin
occasionally
commercials
ging
myster
otherwise
artistic
skydiving
addicted
dut
fires
grab
explor
creepy
pairs
thin
hectic
soup
picky
ris
##mar
##rd
##for
convert
phones
lands
evil
situation
22
fost
##vania
painted
foster
tooth
##alach
upstate
drank
teller
related
appalach
pittsburgh
appalachian
vers
##eran
##itude
##store
humor
culture
silver
kick
##bing
daycare
travels
recept
mothers
##fits
##oof
height
affect
recent
medium
decorate
orleans
bother
quart
court
conversation
##ches
##opardy
asian
salsa
missed
trek
insane
jeopardy
orphan
gather
##aced
bigger
papers
magazine
bartender
eth
##keep
steal
ship
grey
print
caring
listened
blackjack
opened
arab
stays
pret
countryside
tours
govern
ill
##bu
asked
##oles
##apes
contin
dresses
##guard
urban
skydive
slave
vacations
fights
lawyers
asth
ross
##vid
heat
carb
dev
cookie
bookstore
david
germany
tunes
peanut
gf
jers
##artment
ident
ponies
dow
##unt
cler
debt
skill
binge
aquari
##ises
worms
cattle
casinos
catching
3rd
##imate
mommy
swift
matches
cs
##ona
coinc
aside
crush
iceland
greek
ginger
wol
##aker
press
pin
##lvania
##usted
shep
express
chips
##irts
awake
courses
artists
greece
downt
rush
##fo
##uly
clar
truly
scream
skating
kitty
considered
neighborhood
dorm
gambling
paddle
asthma
shepher
return
##books
department
matt
spell
steelers
redhead
purp
fallon
sunsh
sunshine
hm
nike
graduating
##burger
hurricanes
goals
##ores
whoa
accent
activity
laptop
##cil
surround
belong
kevin
iguana
##riz
##uel
boxer
festivals
bees
tiger
##anding
eats
heads
cutting
gamer
##sylvania
allowed
pennsylvania
fed
mater
##cked
cher
afr
closet
sandwiches
##den
musc
##ibility
veteran
society
suit
mang
lifeguard
mornings
ended
successful
hah
load
terrified
pandas
fortunate
crowd
##vada
nevada
mult
farming
bingo
drummer
chihuahua
jersey
ly
mut
pear
scre
##ulf
intense
genres
inspired
tradition
cable
##ilt
##roit
puzz
detroit
angel
environmental
receptionist
shepard
drunk
harder
sav
skunk
bitco
baller
robert
activist
queen
ib
ray
tiring
##bull
carbs
interior
uncom
salt
pitbull
13
##ground
##eral
guessing
dealing
antique
kic
loy
weekly
deser
##place
charity
minnes
settle
suburbs
temper
clerk
##ered
docu
##iana
homem
scares
##pon
##bers
##uten
cathol
##agram
gluten
instagram
bunny
bicycle
clouds
catholic
max
py
calling
honor
vehic
pearl
##oura
##stock
former
nobody
##pend
scoot
majoring
eggpl
detect
government
coincidence
heal
kep
##iens
aliens
prison
mcque
joined
allows
kept
mcqueen
peoples
adv
flash
talks
podcasts
jugg
tells
flip
desk
##vens
possibly
drugs
preacher
rugby
bache
##teen
##bras
bubble
zebras
bachelor
gift
tree
thick
##east
ups
##umbs
beast
fixed
barbie
alcoholic
fluent
mashed
rib
toron
##ena
sharks
loyal
toronto
mia
numbers
gamble
symp
cartoon
president
##cket
spr
feeding
tutorials
scene
louisiana
africa
ariz
giant
shirts
typing
editing
kayak
pony
landsc
arizona
ferre
electronic
garage
minnesota
sent
mond
level
appl
particip
ba
rout
##night
##iest
anne
slack
lifting
niece
##atic
##iles
##istic
ahead
geoc
softball
preparing
les
tap
thom
##ony
usual
fisherman
serving
keys
invite
cultures
chilly
ibm
thomas
##ilty
guilty
cheeseburgers
lind
yay
##vere
##bles
##step
alpac
##ctose
footstep
boats
lactose
cape
techno
freckles
lizards
pepperoni
scotch
footsteps
ses
##len
blessed
fellow
##ycles
jacob
duty
host
lines
##use
overwe
planet
rescue
storm
smells
distance
picked
changed
mysteries
overweight
##tar
##arag
##rad
roof
puppies
projects
cosplay
hid
pud
##niv
##angers
scar
exercising
headache
addiction
alex
gent
tay
wea
theat
##oted
##etime
flood
parking
##uffy
technician
pleasant
oreo
jerry
searching
gut
hers
tu
##boy
beet
brunch
relieve
leaves
##uggets
##uth
orch
brat
teeth
unw
healthier
dave
apolog
confused
admin
caffe
77
ends
##vine
thre
##orate
tigers
crit
original
pretzel
nash
pork
##ford
stom
rainb
pattern
maryland
nashville
uk
vit
##name
##omp
clue
mustache
stayed
joe
pens
snowboarding
##ience
tool
above
##ila
depl
switch
genius
changing
gee
hence
happiness
sneak
##pense
tastes
attending
suspense
6th
lakes
nancy
sir
##ration
##inder
artic
crack
touring
nan
##gles
suff
foodie
piece
mixed
astron
cheetos
400
dre
##iat
##orter
##uming
freed
members
27
cities
nas
##fc
##geb
hearing
ironic
occup
crocheting
eggplant
ni
waking
##ately
eaten
swed
sword
minute
specific
stomach
gang
##aire
goss
chop
mugg
pecan
robots
admit
caffeine
deploy
freedom
ble
dall
fond
reas
arc
saf
graders
retiring
adventures
hippie
ribs
dallas
dive
stat
everybody
useful
falls
grocer
obviously
asparag
convertible
asparagus
aunt
dunge
mba
fault
greatest
swimmer
passions
peanuts
cel
held
asia
chees
suns
scrub
creek
chasing
border
jes
tan
##town
hehe
knees
gray
ground
scooter
jesus
34
dates
pist
ult
##leep
asleep
cooks
owned
difference
encoura
homeschool
options
sesame
darn
##tit
##gth
toe
##ung
spon
felt
paramed
accepted
pond
wic
opinion
ballerina
ft
##gal
creed
##ographies
shelters
larp
mustangs
distracted
hated
##rop
thous
thumbs
shakes
nearly
rapids
##iversary
fixing
anniversary
fairs
struggle
atlanta
taylor
bt
tank
##mont
##ales
anytime
subs
spaces
##oyd
floyd
laid
salary
imaginary
closest
##lif
##ini
ohh
##aging
drake
breaks
paul
shooting
director
civil
pharmac
ger
mr
rick
##cher
plate
##geon
argue
mail
rail
aspiring
homemade
ket
##fight
stan
arms
lex
costco
discovered
shellfish
vitam
tx
tah
##bian
dober
whit
sale
creatures
emb
telecom
limited
pretzels
bead
site
##nold
corner
skinny
closer
customer
pumpkins
eagles
##men
##rix
frust
sem
sep
highly
recycling
defense
created
partying
handy
followed
packing
denver
mushroom
##ouncer
greetings
theatre
ing
##iced
within
noble
generally
macar
memory
exhausted
jason
piercings
wolves
wiz
attack
irish
motorcycles
autographs
coworker
quarter
identical
detective
various
##rious
hardly
husk
typical
barbecue
ded
##ooper
classics
purch
calming
universe
authors
##rooms
process
variety
multip
dungeons
dedic
tup
fel
ravens
killing
gymnastics
tupac
fired
##off
summ
##ffles
##ured
##icks
secretly
weakness
despise
gifted
batt
gag
##mark
dolph
mont
gender
trumpet
covered
robotics
vermont
reasons
rise
##light
##wor
##sel
painful
walked
golfing
##iscuit
surprised
cheerleader
flavors
gentle
mir
##vana
towards
##orke
exist
grate
sax
snorke
##ques
skateboarding
lexus
imm
tor
stir
refer
##riel
jama
nic
nine
rn
##lip
inher
proof
hunter
emotion
danie
chewing
eclip
purpose
vehicle
paramedic
nuggets
pac
whist
combo
##hael
owning
locally
basement
focused
michael
bag
##ching
##ript
enjoys
herbs
surgeon
pottery
epis
pill
##pa
##ether
##sey
clin
accomp
autism
dressed
attractive
recovering
pudding
safety
pistach
macaroni
cd
dies
##oon
alien
blow
drones
redd
meats
worlds
humm
modern
hide
lep
pant
##ura
##ias
stable
##ander
##ulting
cheers
balls
figures
snacks
latest
gossip
##kins
##ndrix
soap
hendrix
##ify
scuba
freshman
psychologist
lucy
challenging
achieve
##gebob
spongebob
railroad
tas
##using
approve
acade
files
labrad
goalie
mushrooms
bachelors
alpacas
ultimate
kj
ufc
hired
spl
troph
waffles
lean
communic
ladies
lesbian
##selves
trophies
anat
noise
supper
viol
monday
huskies
biscuit
elder
merc
pan
races
##lest
##bits
arnold
##veland
cleveland
following
encyclopedia
cope
gila
hs
rh
sin
sears
vote
hazel
##oma
review
coupons
hearse
crab
strangers
triath
##ography
mini
corp
written
patients
include
panda
olympics
translator
rome
##utter
##uses
background
##psy
autom
cello
holding
memories
dollars
utah
sweden
##ocks
##tling
##ibr
introdu
epile
clinic
ariel
dumb
nir
pup
##ki
##oos
craving
##aches
maid
autobi
groups
puzzles
suffer
nirvana
29
##zen
##cess
##inet
harley
moves
slee
happening
attitude
weightlif
figured
unwind
grateful
45
doo
stup
##ading
##amel
caramel
saus
fluffy
sleepy
##fortable
##tendo
owen
millionaire
nintendo
incredible
uncomfortable
thousand
stupid
70
fulf
##ug
somewh
##illing
til
confident
admire
messy
questions
mistake
jamaica
anatomy
somewhat
##ii
##edes
notes
ank
##alo
abig
quake
apply
##box
warmer
radi
attended
educated
buffalo
rollerbl
including
doberman
mercedes
abigail
##erv
##recha
haird
wayne
recycle
consulting
standards
specialty
austen
cheetah
beastie
leprecha
leprechaun
gour
opening
copper
colour
option
central
nasa
filled
hook
vall
voc
##ae
##rings
faith
frost
cloud
boating
earrings
impressed
fridge
grasshop
janitor
epilepsy
everest
traum
planner
parake
woke
##aughter
grandfather
dais
minim
godfather
banker
champion
pistachio
ym
##gan
necess
carniv
idol
adventur
cuz
condition
btw
ymca
rico
youth
mark
grunge
bucket
jeans
selfish
decorating
entertainment
desserts
buddh
alf
##ilies
families
swam
waves
salmon
image
subtit
karma
personality
firefight
praying
##oopy
responsibility
matters
nat
##usion
carpen
##umes
breast
serv
falling
auto
affairs
choices
suggestions
oooh
screen
groceries
hairdress
carpenter
zomb
invent
truth
##pel
perio
celebrity
turning
quarterback
valley
bare
ware
##lin
amount
##iff
##ological
balance
heaven
keyboard
diabetic
malt
symph
sunsets
triathl
gourmet
sooth
dew
trout
shortest
saved
topic
##umba
provide
quality
ethnic
tube
##life
##gent
##gum
##vi
lic
notice
argent
unif
levine
bubblegum
lindsey
mirror
hummus
1st
ber
lit
alger
cous
editor
picking
##minal
empire
nickname
muggers
ankle
ga
hat
##lla
force
enter
british
mmmm
fluently
cudd
shepherd
##ders
##ffect
stage
fairy
chose
##amb
coun
puts
##rolled
geology
terrier
ferrell
##rass
##how
liking
client
##istics
standing
jean
produce
unicorns
mermaids
csi
administ
accomplish
copperfield
65
capt
rp
##ns
##spel
##lights
welf
gospel
kidd
diam
childrens
deli
collie
management
challenge
surrounded
traditional
gaga
welfare
##under
##eapp
coord
spots
clutter
diabetes
pineapp
pharmacist
episode
xbox
spice
arr
##assy
lege
maga
chanel
issue
econ
records
patterns
bite
lens
whos
##enna
stren
coco
allie
watches
syrup
boxes
entertaining
rejects
soldier
gathering
frosting
algeria
tat
##ris
##kward
##atra
whether
areas
onions
shar
awkward
built
uns
statement
programs
edged
killer
assume
##coming
customers
1984
arcade
stanford
nicke
sinatra
cy
dub
pom
##jud
inform
hire
prejud
hometown
feelings
##ailable
humans
nyu
meditate
downtown
cheesy
eclipse
prejudice
hbu
zumba
stare
##beat
chem
graduation
starving
demanding
orchest
bff
kings
##kers
##algia
sharing
grading
craf
teams
hits
talked
annoyed
easter
bench
##rupt
double
effect
pors
##lers
##ita
##stones
droopy
drawings
depression
discovery
weapons
porsche
beha
atm
actual
nurses
confidence
##keeper
niag
36
bree
ew
hp
ign
loose
toky
ambit
seashe
humane
titanic
pediat
uniform
tokyo
pediatric
bent
mach
##arts
tight
relief
owe
gigs
website
pyram
beadwork
information
bentley
dab
##edictorian
blah
beagle
vegans
snugg
photo
simpl
orioles
packages
explain
cheaper
taxes
valedictorian
embar
multiple
snorkeling
kiddos
500
##kin
##50
playlist
##igrated
arri
##athers
hotdog
peta
conscious
window
##well
breeds
smoothie
firefighter
fra
##cing
##word
liber
suits
compared
afterwards
sciences
vienna
birthdays
hamburger
celebrate
bella
albert
ranger
##rate
thirty
##ste
outfit
willing
brush
convent
medal
dining
blogs
prepare
particularly
retrievers
koi
combination
development
eagle
exploring
aquariums
bitcoin
buddhist
alfred
iam
peach
wise
chai
##ents
##ential
##ineers
backst
flint
content
pita
tailg
##eranian
muscles
pomeranian
2nd
flex
gall
push
##ties
players
concent
volcan
seasons
report
strength
dc
hamp
analy
shades
plumber
##orns
contest
##shire
democ
pursue
##irable
landscapes
vitamin
symphony
rays
##aut
##ara
knock
##soci
marines
happily
vision
surfer
clubbing
rule
empty
galact
jasper
indoor
clarinet
astronaut
services
est
santa
thumb
##llig
wher
tiki
themselves
esp
boiled
swell
10th
katie
regularly
introvert
farts
intellig
waste
subtitles
pyramids
cind
dak
lumber
##crib
tip
smith
brave
filming
leader
attracted
jogging
elderly
42
##outh
harsh
paran
finds
ease
curious
jamming
collies
steve
scouts
ken
##ras
##ho
theme
goodby
##urt
noah
##aren
flight
babysitting
##omyalgia
views
kissed
##ibromyalgia
warehouse
nickel
embarrass
ebooks
lin
pers
wre
##mit
##ole
info
##ution
hiring
plain
mario
bulls
gla
impala
ears
outdoorsy
international
woodstock
meditation
olive
commitment
wore
##will
note
goodwill
aware
blan
improve
guitars
##flies
lights
mechan
butterflies
wrestle
scenes
typically
situations
felix
##offs
whistle
por
tack
uc
##bly
hay
cob
##oli
coupon
excl
access
patience
considering
toddler
mortal
brewery
festival
mentioned
apologize
keto
daniels
autobiographies
minimum
hairdresser
hampshire
jag
beside
admirable
combat
album
jessica
affected
##worth
liberal
goodbye
38
doors
shif
musicals
meetings
greenhouse
companion
##backer
menu
linebacker
celt
fibromyalgia
gain
##ppy
interact
aged
speckles
videog
barbies
luis
trails
surprise
cosmet
antiques
kicked
tahoe
2pac
kra
ontar
timber
fran
##aped
highlights
breaking
wears
trend
foreman
cryst
airplane
occupation
battlest
maiden
sleeve
democr
ontario
battlestar
##bre
##oner
web
weld
chains
beagles
waiter
yelling
windy
available
communist
involve
mermaid
opportunity
8th
dull
nc
tues
##oops
reads
##ilton
swing
##anced
apps
monkey
disag
wednes
hamilton
eyebr
involves
vikings
sausage
adventurous
argentina
dakota
wednesday
oz
wid
##ya
##inting
whew
##sty
haven
lovers
sore
somebody
funeral
nowh
carl
relaxed
wildlife
promoted
grilling
pediatrician
gables
mate
##ox
shoe
award
gran
staring
hitting
costumes
medication
anxious
jerky
orchestra
44
cul
rena
##cl
##foot
thai
##ndred
loans
##fted
##issance
maids
hundred
buildings
frequ
transition
celebration
breathe
despite
barefoot
soothing
ambitious
culinary
renaissance
mouth
rat
rab
##elf
##die
##wife
##eroy
##llas
##aris
stream
code
price
##ipment
teap
leon
disg
sells
sitcom
resp
supportive
lifted
ferraris
morty
naps
disability
spoiled
equipment
websites
ai
dash
md
sis
sket
##verted
interview
husbands
lettu
rapt
inspire
naw
preschool
formal
proper
require
batman
struggling
hiding
article
chemist
lettuce
od
oops
range
##aw
##sung
hall
##etic
stairs
shed
mob
manning
unp
cares
perfor
treating
dieting
emerg
fields
patrol
fridays
samsung
strawberry
dorms
vampires
benefits
indoors
administration
intelligent
glaci
nicer
##gien
##ja
##fall
begin
stre
horr
companies
pitch
crossword
hygien
continue
flintstones
43
gur
pure
rats
wra
mel
covers
scul
skier
##ahol
treats
remote
freaking
jeff
distrib
landing
adoption
burrito
damage
thriller
triathlons
crafting
guru
umm
thorns
##une
##umn
swims
poems
letting
stops
hitch
penny
denmark
##cuse
pageant
injury
diamond
pineapple
dread
hoop
vanc
##ouver
##erable
##ora
##sters
chick
coats
joking
lesson
portra
direct
miley
merna
limit
employment
semi
vancouver
cit
nba
oak
ug
viny
##zania
##pop
##ership
stamp
workers
hills
badly
missou
##fuse
boxers
transport
##oved
cuddle
tanzania
dolphins
ip
wit
##di
onion
moments
wished
flir
realize
pastime
dealer
pencil
labs
network
posse
independ
nanette
cheetahs
backstreet
bones
fet
pics
robb
loll
##iser
stone
stains
butt
##ados
maddie
magical
nerves
expert
patient
technically
obsess
blogger
eighteen
grandsons
styles
nationals
document
purchase
pantry
rollerblading
disagree
nowhere
fool
witch
wealthy
##uing
##lands
##yy
##fly
##ening
##racuse
mul
retires
recru
##iva
syracuse
explains
picnic
delivery
tarot
homeschooled
bone
ment
rage
##ex
##stop
##isk
alike
##isham
uphol
severe
hardc
grisham
bug
##aching
purses
sunfl
sunfish
markets
disappointed
unsure
f1
hiked
didn
agit
driven
joint
watercol
attic
deadbeat
##ophone
travelled
sucker
suburban
example
encyclopedias
opportunities
participate
wheres
600
cuba
pound
patt
##ators
andro
fits
cowboy
cuc
signific
fortune
shallow
weigh
##ria
thankful
sweaters
socialize
northern
joining
honeymo
queens
cheerleading
pageants
miserable
deserve
reviews
niagra
##aholic
hitchh
honeymoon
bach
fright
jar
##cut
log
ween
clay
betting
flat
donuts
contra
forens
packs
promise
throwing
unicycle
arabic
seashells
binder
tale
ww
##otions
stret
surely
basic
starts
biography
texting
sticks
june
version
crowded
fulfilling
puff
punch
rag
victorian
##yard
##yton
peyton
backyard
string
forgetful
barbados
pipe
##aaaa
2016
teenager
##urally
naturally
lumberjack
shifts
tuesday
53
borrow
cast
kpop
rame
##ges
##orical
haul
lions
##aries
harvey
consuming
sickness
historical
promotion
aspire
savage
geocache
rainbows
introduced
period
ramen
soo
##hare
dope
lock
coz
somehow
percy
timeshare
##quet
##works
fairly
128
surviv
discount
ingred
rhy
videogames
citiz
ald
biz
manta
dod
failing
abroad
allig
suv
rode
county
unlike
minds
pastor
yorkie
deals
##sonian
pieces
talents
barbeque
palm
junior
gutters
lenses
smithsonian
disgusting
loner
ppl
##rus
##dom
brow
drinker
sweat
##ivid
designs
setting
figur
cupcake
sexy
satis
gerald
trauma
cyrus
nickelback
386
celtics
upholstery
f150
significant
cub
fred
hen
oy
yrs
##ucc
##hal
##vrol
##icon
outfits
##ppucc
##ilities
rod
backwards
chevrol
final
petting
cappucc
spirited
digital
silicon
olympic
##hhh
motivated
buddies
murals
widow
sitcoms
ugly
missouri
chevrolet
pills
##rition
##tled
##ipp
##water
##ata
##rets
flow
cursive
preference
fullest
tasting
violinist
obsession
nutrition
stylist
piercing
sprite
deployed
multi
lute
##uu
##fisk
alph
hopeless
flops
retro
ravi
emotions
depot
martin
dollar
explorer
hostage
whittling
##underst
tailgate
lutefisk
ravioli
gary
lamp
mma
va
##zer
##jo
##eria
shark
spi
dogg
clock
seat
##ibles
curator
regret
lightning
expected
proofread
##ervative
parakeet
coordin
legends
raptors
70s
maker
cane
sevent
uses
##anges
tony
lease
crap
stuffed
austria
budget
tune
posts
grilled
walls
bubbles
dublin
frequently
ave
bay
emmy
##nosed
##hand
##ply
amate
##keys
placed
##obe
##ooky
##agnosed
conv
##ressive
diagnosed
housewife
stray
letter
simply
announcer
celebrities
survived
amateur
dun
leroy
##ann
##eton
sheeran
drafted
ridic
fashioned
balanced
##fying
koala
fifteen
linkin
##market
pressure
hardcore
jars
ome
woo
##rees
liar
infl
shave
chubby
greys
counting
happier
remod
bankrupt
saudi
mortician
democrat
respond
influ
remodel
pc
yr
butcher
fro
##ional
playoffs
perks
##elve
causes
eyesight
tattooed
garfield
tricks
##hicans
tablet
weightlifter
battle
gad
ille
vill
##11
habits
william
schooling
paino
##tember
slept
mode
boarding
250
collar
suburb
arabia
september
cuddling
illegal
33
duck
fathers
hind
lum
sig
islands
##arre
ties
enth
shells
##bean
##haw
troop
relative
careers
lemon
pianist
consult
sheltered
roadie
generation
stinky
surprising
rejected
statistics
krav
90
hr
karen
##pers
chronic
cock
tie
knife
homebody
groo
showing
publishers
inspiring
paperwork
2000
chemistry
nich
##ounts
whom
##iter
bey
canning
spider
##osph
##ians
hung
sweetie
given
dreamworks
contract
checking
ceo
radiohead
incredibly
mangoes
routine
wizard
daisies
carnivore
zombie
atmosph
arrive
atmosphere
cig
eff
ri
row
##con
lil
spices
spread
croc
result
humble
finger
boomer
rpg
hotdogs
glaciers
henry
bang
jum
##mare
##usive
precious
orland
bran
oldies
cheated
nightmare
bothers
camper
##venient
ending
focusing
trailer
magazines
reddit
teapots
orlando
der
kore
wet
wif
wier
knowled
adj
himself
businesses
meds
headaches
tomato
smarter
smoked
coasters
disappointing
century
employee
streets
alphabet
bomb
fears
mt
nom
tide
##ux
##ershop
goodfe
chain
dip
##ips
snaps
desire
supple
supports
experiment
bummed
signed
barbershop
saxophone
license
welding
sketch
crosswords
agitated
forensic
survivor
goodfellas
oven
tape
vent
##erling
noticed
sterling
##ushing
mum
##iah
tease
fallout
immed
storage
designed
milksh
sandy
musicians
scenery
taxi
grizz
galactica
porch
swimsuit
immedi
hrs
jet
isa
##ased
##eeee
##iever
argu
tracy
##ils
trou
higher
cramp
excuse
paints
197
obl
proced
corporate
radiology
emergency
figurines
ridiculous
cycle
leel
nood
pir
vs
##vo
##arily
inse
bean
##igans
block
bets
##lord
drivers
##erty
##nged
donna
copy
##inois
sevenfo
depending
springfield
motivation
jenkins
illinois
pitbulls
herself
summers
council
cosmetics
watercolors
avenged
enthus
leela
sevenfold
hooked
sart
##nam
##cript
##orius
inf
prog
herb
skirt
visits
monkeys
degrees
attach
sixth
##adelph
sipping
depressing
philadelph
solar
washers
risky
appliance
frustrated
flexible
sartorius
philadelphia
ax
bc
rita
##atory
##nders
likely
stea
coon
##amas
seed
actors
parlor
danced
rains
butterfly
float
encourage
breeze
hayworth
wwii
lumineers
branch
cork
messed
vn
##mint
##gets
##stick
sock
##adays
spooky
nowadays
##ization
minor
european
packers
auditioned
juggler
stirling
econom
cappuccino
corky
vnv
fill
gear
mohicans
##aster
marine
unus
finances
##phones
understood
hangout
vegetarians
fighter
turtle
circle
luc
danes
escaped
financially
threw
rub
sigh
##nies
doc
##oosing
beta
colorbl
understanding
brains
shelves
settled
hola
ferret
confusing
athletes
jackson
snakeskin
battery
suspend
cherish
leprechauns
simpler
lollip
effort
crocod
colorblind
suspenders
mons
tats
yall
##cra
shorter
##eeks
##anto
refuse
##oler
swear
intoler
impro
monster
autumn
treas
conservative
kitties
nerdy
reporter
activism
criminal
planting
requires
fifth
torn
cucumbers
monsanto
911
cap
hats
mild
num
sang
##jour
tone
olds
woah
ess
disorder
charge
acry
bearer
lifetime
ergon
returned
pillaging
analyst
granny
dodge
knowledge
ergonom
80
mates
panic
teal
##va
##eared
chores
alt
repe
dece
grace
consist
seventh
siri
chilli
tedious
pursuing
geocaching
cousin
oakville
wierd
dump
rou
wage
##itals
itself
##utical
##rigu
shade
sees
##resent
intrigu
showers
##aceutical
restored
trucker
eyed
hospitals
paps
represent
costume
organize
ruin
forgive
title
pharmaceutical
alexander
##hold
doggies
beyond
immediately
isaiah
darts
ivy
rings
thier
##enact
chairs
upon
reenact
hobbie
gravey
passing
served
resour
sunr
charities
brag
storms
specialize
message
changes
laying
fifty
daydreaming
prints
sculpt
portraits
citizen
jail
map
##oint
shots
hiya
plastic
##tha
oranges
collector
supermarket
shortstop
milo
speaks
christie
photographs
reput
colon
powerful
benefit
aquarium
roofing
labrador
bizarre
oyu
modeling
led
ot
tamp
##bra
whose
inner
worn
plot
neck
anybody
upcoming
manic
rolls
specially
divers
curry
appear
dreaming
majored
acres
cardigans
medications
linking
lying
inherited
horrid
documentaries
tampa
4th
boun
niss
##pting
compost
badmint
classroom
##ivity
gardens
cruel
meaning
profit
pinky
20s
tending
ruined
jumped
botox
critic
cobain
nissan
badminton
46
cyc
hatter
uber
##cues
##vard
##rey
coors
##eez
favorit
knowing
commend
##ummy
heroes
disease
rescues
writes
zookeeper
terribly
oreos
square
atleast
communication
linux
alligator
signing
hatteras
eww
##uce
##giving
##nded
##ete
##ompl
neg
aspect
sparks
##ishing
trooper
thanksgiving
saves
siber
cheeseburger
incompl
urinary
celebrated
testing
50k
drug
fortunately
345
captain
oblig
incomplete
cds
##free
##otam
stocks
##opotam
cla
gotti
wherever
manly
listens
tongue
calories
ideal
individ
definately
pops
holy
smelly
landlord
racquet
hippopotam
refused
geek
dabble
browsing
nomad
graveyard
hippopotamus
bry
vets
##mate
##vior
halen
shore
mud
prest
##obby
colorful
##ocked
reloc
experiences
bellied
veterinary
jimi
superheros
princeton
competitively
tricky
carrying
1986
behavior
dine
pta
##ham
lip
began
cha
##aked
outlet
todays
trash
##ango
nightly
pizzas
household
wondered
winner
##issipp
belief
mississipp
grows
yaa
steps
junkie
researching
proposed
committed
risk
downtime
academ
hygienist
android
dunno
mississippi
49
lee
patch
wing
##tales
##ndry
inhal
nighttime
freeze
dinners
controlled
laundry
handsome
fascinated
packed
fairytales
spiky
grizzlies
unusual
inhaler
data
kurt
wealth
##ovel
##ipping
##lect
cheeks
##estic
envy
telen
harvest
complet
sporting
slight
modest
productive
rejection
blessing
architecture
stews
rainbow
montana
machine
ergonomic
telenovel
bip
##zed
##tain
##enced
##adas
orders
teens
overrated
frenzy
maintain
jelly
assign
##going
aspir
performance
hyp
venison
spoken
misunderst
coworkers
##keeping
slackware
dreamed
reference
vinyl
puffs
rouge
ebook
jay
lap
mama
##zu
##ued
##llen
stations
associ
reinc
mardu
grandd
##eased
yorker
hurry
autistic
dealership
humid
carts
inspires
cruz
micro
request
required
zebra
brewing
baldness
greeting
applying
grasshoppers
necessary
tatoos
eyebrow
essential
cyclist
reincarn
marduk
bucks
dated
ry
session
##iards
##fs
lies
fame
spin
upper
arrow
cookbooks
agg
showed
billiards
disappointment
thrillers
jenny
kicking
beetles
academy
jake
jose
##ji
faces
##cky
prem
##ogue
sail
overnight
flown
saliva
poker
##aho
idaho
southwest
##ormal
organizing
superheroes
prepared
developed
protective
gifts
vocal
paranormal
transportation
martinis
frozen
village
noodles
lollipops
commendable
rash
und
##rating
##lets
##cce
dozen
##itement
##ther
succe
twelve
complic
flicks
tyson
##getic
disci
excitement
rescu
degras
##leton
slice
forecl
cups
adventist
energetic
millions
##fficient
cuisines
source
crashes
hitchhi
milkshakes
succeed
degrasse
laughter
ps
pow
wi
##dles
##atha
##itas
##idge
##alas
##olas
##igious
newest
agatha
roast
release
shopper
crabs
differently
casual
pitt
subjects
olympian
bonjour
bait
diesel
gallery
contractor
gadgets
nicholas
siberian
prestigious
##sed
##ining
gresh
rehear
##ulu
##bec
harvard
score
crunch
barn
barking
imagination
perfection
distant
ticket
quebec
squats
bottle
spiritual
loads
bitcoins
advise
slacker
geez
subscrib
volcanoes
ingredients
##craft
gresham
cay
fans
sane
##onds
##cci
##esth
sof
welder
heh
fail
shi
shake
gucci
convenient
petitions
handica
candies
kites
accidentally
baton
dedicated
immigrated
violent
##stein
concentrate
consultant
december
racquetball
mig
ta
##unts
noises
regg
##soft
newly
wishing
sings
haircut
hass
unable
donkey
confined
juicy
hipster
delivered
2004
biggie
banking
shepherds
arrange
resources
4am
dough
giver
ms
powers
##itter
##aro
##icide
spark
nicely
marvel
craz
imposs
sitter
cleats
stopping
addition
paw
radar
ahhh
limits
furry
stealing
federal
grounded
telecomm
labradors
stretch
impossible
file
ling
mit
roles
ske
tub
ant
previously
wins
excerc
smaller
location
tallest
earned
rooms
acqu
enders
nerve
prayer
psycho
deeply
comedians
discuss
venue
flavored
injured
4000
maltese
exclusive
reputation
telenovela
excercise
lamb
peas
poop
rivers
##nics
##natural
##tra
toss
##urb
replace
harm
compare
supernatural
mission
prior
motion
wilder
distances
dropping
picnics
babysitter
refurb
bonus
duh
recovery
wizards
emotional
beginning
robbery
jumping
28
ds
fence
poo
rot
rig
##val
##ativity
libre
likewise
shelf
##ister
unit
secrets
pastries
tests
wallet
fully
bunnies
employees
answering
destination
opinions
threat
separ
pups
grasshopper
blankets
economics
completed
subscribers
gassy
hust
ike
ranc
##rom
##worm
domin
solo
##erella
rev
bookkeeping
bookworm
hairsty
highway
##temp
##gging
poem
americ
bringing
honorable
entry
buds
##oooooo
gamblers
debut
murder
wiccan
tasks
cinderella
mechanics
crystals
lipstick
rancid
dm
dirt
loosing
tick
zone
##rict
##gic
##hatt
inches
##eno
forty
outgoing
repl
manhatt
script
carefree
flag
veganism
monit
greens
##atty
collected
polite
bowled
assuming
windows
laser
grandparent
garlic
introverted
dedication
embarrassing
rashad
dmv
manhattan
cooper
wwe
##any
thru
##ails
removed
syfy
detest
baths
electrician
inherit
hindu
##ointment
hitchhiking
aint
bouncer
cer
ding
fb
masc
maps
ovo
sassy
yah
##odo
amb
forced
ants
kidna
cris
camer
freetime
assess
telemar
cardio
expand
hippos
pretending
offered
tackles
distribut
coordinator
supplement
ryan
powder
telemarke
aug
iow
komb
##cat
toward
##estern
soph
faves
sheep
calms
believer
ceme
cops
oddly
mutt
applied
clueless
biscuits
sharp
sunrise
kombat
aster
jeep
ki
tear
amy
amen
##station
##ril
##riate
##riac
##unic
##ante
playstation
##gender
clums
cliff
startup
flirt
##ondriac
stuffs
guitarist
delight
pits
cartographer
technical
##ochondriac
transgender
posting
stationed
omar
clearly
further
destiny
crackers
wicked
##ropriate
intriguing
hypochondriac
premature
telecommunic
clumsy
bust
ets
mand
sally
tn
u2
##nor
##lah
##bage
##mel
##ision
heel
neil
abby
suicide
##olo
##olar
semes
oklah
connor
diets
walker
sixteen
corg
literal
ordered
terrifying
solve
freelanc
##build
flooding
bipolar
microsoft
semester
oklahoma
bound
hog
rc
##aff
##wag
toler
##orus
lilies
inch
fac
faked
chorus
rept
##ppings
armp
##acking
marley
##llect
shoulders
##ogn
keeper
curl
biological
seller
laws
dancers
closely
volks
fighters
##ficial
labor
darker
wrestler
tourist
independent
sunflowers
volkswag
ducks
lance
mint
sets
dom
doin
dona
haired
##chy
rece
section
brut
spect
relaxes
gardener
meter
colder
roofer
cases
impression
ironically
physically
wasting
summert
remotely
donald
dv
xd
##ially
##ensive
anger
##opath
ability
##eeze
coolest
knives
comment
reduit
understands
30k
hippy
eighties
spirits
pretenders
maxed
flirting
monitors
fle
korn
vest
waters
##lics
##juring
##otas
chir
##ified
blo
conjuring
levin
##ission
hole
boxing
shyness
journalism
property
avoiding
expecting
laptops
critical
snuggle
enthusi
acrylics
reggae
egy
ira
lbs
piss
paced
rer
samp
##uries
##cream
##fus
##ester
tim
sue
catfish
maria
guest
counter
classically
bond
appointment
icecream
pickle
##ronics
apartments
208
##aneous
electronics
present
physician
##mokers
cafes
steven
massage
muscle
deployments
alfredo
chainsmokers
telecommunications
egypt
iraq
9th
feast
gm
native
##some
##dies
##bling
##ribe
##iro
##antage
sum
awsome
kindle
defe
##osing
##iber
wah
impact
excess
fanatic
ponder
1000
fourth
legit
archae
lux
2000s
deniro
suggestion
qualify
locker
wifes
troubles
intolerant
hassle
debutante
coo
gmo
jeez
##hill
##press
sod
spilled
offsh
downhill
medi
pete
##aurus
creativity
##rock
edge
topics
workouts
iphones
chillin
smoothies
demand
judgement
##check
lyr
juggle
thierry
cayden
skeleton
distributor
offshore
71
cage
dum
lower
mice
os
oct
rum
rated
sens
##illy
##pm
among
neur
enrolled
maroon
hound
skilled
passive
recogn
soundtra
hunts
evenings
decades
brah
eleph
impressions
edit
invited
messes
marrying
developing
stylish
crowds
wreck
kidnapped
dw
gel
naught
##born
##rel
tomm
##stone
belly
hel
justice
goats
##arett
livestock
##ppel
comfy
##sole
console
redo
leash
##berry
healthcare
bark
april
midnight
##tual
repairs
legally
accidents
lifes
appreciated
coaching
jerk
virtual
brunette
koalas
connections
banana
intellect
cigarett
iowa
cine
pn
##ray
##roph
##ko
gods
exh
carib
##osh
classy
petty
dances
pickled
30s
energ
racer
ought
carbon
documentary
articles
accomplishment
rhyme
foreclosed
cameras
caribbean
37
gn
mra
pam
rica
##pline
##antha
hav
becky
greed
##imid
exten
bros
##aste
intimid
cheat
concer
genji
volunteers
throughout
remain
##pective
prayers
tutoring
samantha
developer
thursdays
material
mangos
perspective
sooo
surprisingly
discipline
telemarketer
mraz
avett
fuel
rip
seal
##rr
##look
##lake
##inter
tower
toppings
whil
abuse
pros
##udes
guide
artwork
scand
hurting
decade
pugs
magn
secondary
cabins
encount
trades
2017
janet
route
blowing
timberlake
mobile
ipod
omelet
tabletop
sirius
slightly
summertime
whilst
55
batch
fusion
hut
mi
mph
pas
pages
rope
yan
##uary
##reg
##chain
plat
spoke
becom
overcome
##eless
accord
##doll
fulltime
fantasizing
crossed
transitioned
results
negative
hustle
august
armpits
yanke
dana
fought
fio
gaz
migrated
pint
vict
yu
inland
bever
##isu
nove
tiram
spear
arrest
trapped
doesn
traveler
waist
passat
downfall
hunger
realized
##ashions
pickup
object
audi
floating
investment
conversations
spoil
expressions
rabbits
##cription
etsy
enthusiast
tiramisu
cass
mas
##mans
##gage
##iable
##vs
dong
##oration
##ndane
##esis
##oty
shapes
attemp
mundane
yearly
blocks
bron
bridge
##ived
##bey
animator
bully
perfectly
vacationing
johnny
collab
##ification
140
stocker
mortgage
squat
touches
loser
cabinet
umass
tabby
murders
pacific
revol
vestie
archaeologist
era
fatty
oste
ram
taurus
wis
##gom
##earest
shut
##eee
sucked
user
hardest
fisher
eloped
underwater
preferred
trim
practically
stressing
airline
##itches
pregnancy
2011
banjo
adults
montgom
automob
cindy
aspirations
pnb
osteopath
wisdom
montgomery
len
oma
sac
##roy
##lower
##iers
##cas
stad
hill
abilities
funky
rebuild
##iflower
##uliflower
##uds
marks
offense
unf
overwh
surfed
cauliflower
socializing
bedtime
oceans
winding
fantasize
soulmate
meditating
cheerleaders
atlantic
jackets
destroy
blends
frustrating
reddish
convention
refurbish
omao
stadium
overwhel
hood
pun
pra
zeal
##wers
##woman
##oomy
melo
sporty
sage
overtime
quiz
planing
moral
gloomy
barg
sonny
gene
churches
remode
educational
irc
grandmothers
explode
indiana
answers
utility
bicycling
status
streaming
korean
bryan
misunderstood
50s
ming
##uals
##tub
##vann
##aline
coding
##adill
aswell
##imp
##reshing
owners
unha
finest
phobi
ours
##iments
jovann
sleeps
collections
terminal
practical
donating
sli
evac
refreshing
bagel
bartending
chased
apologies
split
##hawks
procedure
insec
numan
rescued
naughty
mingle
phobias
maz
op
overe
##ros
##gra
theory
themed
##amation
reun
##iel
extend
arth
managed
needles
offers
craw
farmhand
##athy
resting
talker
cleaned
regist
celebrating
snacking
injuries
included
cultured
orphanage
screaming
weightlifting
mechanical
cubs
complicated
cereal
horn
rican
western
##rative
##cies
thir
##ano
##eteria
sox
meow
stere
shred
cod
##ulation
carping
march
guesth
trop
trophy
grammy
convin
adren
produc
##shift
pools
stickshift
strictly
cafeteria
motivate
provides
ninet
convertibles
invented
blanket
experimenting
pirate
beliefs
lyrics
guesthouse
convinced
ay
nag
roy
soooo
tzu
woof
##lass
##fire
##fashions
##inge
lime
##itage
spit
clears
##ifer
traged
##resso
##lesfashions
herd
heritage
adobe
girly
lelesfashions
cringe
##kenstein
sites
tenth
trifect
term
##rowave
incre
nerds
budwe
production
196
closed
organization
eastern
memor
scientists
microwave
hotels
bulldogs
##hop1
oils
freaky
cafepress
advantage
task
accomplished
embarrassed
frankenstein
shih
handicapper
americans
lelesfashionshop1
trifecta
budweiser
bul
emer
mental
ole
wy
##lan
##xual
toast
##chil
sher
chalk
alley
enchil
ark
fem
highest
##ival
snap
perk
locked
potential
blogging
costs
posted
holds
slowly
squad
princesses
jacket
redheads
headsets
swords
daisy
arguments
relocated
cigarettes
emerald
enchiladas
bamb
hint
rog
##apper
##ij
shocked
##cture
ens
eaters
marching
unchain
skip
relaxation
snapper
companions
shortly
genetic
resident
handed
hopes
fitting
figuring
womens
retailer
indians
sara
optim
distraction
albums
protection
sourced
massive
django
landscape
floods
dolphin
convince
reincarnated
samples
becomes
unchained
jul
wag
##robi
##ooby
##asp
goat
sued
prec
oris
bland
##bel
animation
root
##iley
scooby
##berg
poison
hug
supply
leftover
trends
instruct
babydoll
hmmmm
prime
bowie
confession
obese
saturdays
toyotas
215
inspirations
bathroom
burned
chihuahuas
necessarily
cousins
crystal
seeds
improving
crisp
4h
biling
ditch
ecc
efficient
hoops
jill
kane
sink
tee
##lines
##tler
##gues
##drop
##you
##analy
loan
forms
antar
button
atari
aband
grease
##cted
##ctica
##enties
##entric
managing
twenties
animations
unsoci
rocking
sooner
biographies
contro
dealt
middles
checker
moder
smoker
juices
messing
billion
jackie
unex
solitude
compli
digging
gambler
skittler
referring
keyboards
crocodiles
psychoanaly
extensive
bilingual
eccentric
antarctica
unsociable
middlesex
mins
yose
##mite
##aves
##js
tol
worship
hiker
nebr
partners
function
##iances
##acy
singers
smiling
cannib
crummy
buys
florist
##anks
decision
simps
##visor
pleasures
transit
goofy
solid
proposing
booze
sociable
speeding
awwww
corporation
counse
jefferson
lemonade
diverse
rehearsing
dingy
brutal
elephants
greedy
yosemite
nebraska
bora
lag
pact
pts
##nie
##uine
##tes
##inity
thx
##stic
##icken
##ases
##iding
stab
workaholic
goodnight
chap
##the
doggy
##izes
cheating
checked
basis
phob
growth
genuine
creations
charles
poppin
boyfriends
slim
hoe
honesty
rufus
hippies
investments
disappoints
exams
debate
bags
zombies
economy
performing
recruiter
logical
relatives
treasures
ambition
delightful
volkswagen
unfair
7th
dare
dane
gulf
mam
pushing
##matic
##lay
##iors
##ec
##itzer
##uting
worm
stead
coverage
##days
muff
enjoyment
grind
flute
wonders
curls
preferably
appropriate
perm
sits
cloths
triv
edm
publisher
audience
comforting
propose
zeppel
##force
illust
belonged
astronomy
extended
arkansas
zeppelin
ged
hulu
il
kim
nam
poc
vert
lied
lick
##arried
##ened
hii
outra
wrink
flies
flipping
appro
stro
fallen
weirdo
tread
warming
vegetarianism
##umpy
remarried
smelling
generous
librarians
pleased
occasions
pumped
investing
touching
joys
cloudy
introduce
exclamation
rabbit
flirted
1979
progressive
repeat
exclusively
dvd
zealand
stereoty
adrenaline
bump
cate
foo
hens
iv
kom
nearest
##overs
##taking
##ik
##bal
##burn
##ller
##lden
molly
chart
cocon
##irl
spill
trap
##acked
converted
smiles
artsy
surger
deceased
calden
beds
expenses
crafty
involving
punkrock
##chester
surroundings
manga
puzzle
ipad
proofreader
hairstyles
assessor
luxury
komodo
coconut
surgeries
aer
bobby
eager
tang
##zing
##ering
##orous
theaters
sting
##rian
chances
##ober
##anda
daytime
##essions
exes
##cient
grape
smh
union
##issa
biased
greenberg
##anky
brands
politician
educate
worrying
magician
ordering
bloody
cola
sending
toured
doug
reaching
hyper
connection
parakeets
entering
espresso
melissa
witty
ragini
reenactment
october
aka
kang
kills
mature
zen
thesis
##otive
lik
##iti
##rier
cozy
seats
blows
cookbook
offensive
dipped
sah
bold
bik
secure
bedroom
##ront
majora
##load
label
lifter
martini
poodles
centers
connected
csr
scrubs
purchased
leaning
communicate
flowing
williams
freelancing
unhappy
jovannie
kangar
aston
diss
ic
sized
##aver
##zzy
##buds
isra
##entic
##aint
teh
needing
animated
elite
housework
##tening
billy
amazed
sounding
throne
earbuds
diners
cave
beards
authentic
savings
cheering
jams
terrific
waitressing
malls
points
solution
garbage
touched
champions
value
printed
sneakers
panama
influence
sculptures
crunchy
tropical
females
cannibal
israel
dar
ward
##gie
##cribe
##bed
infer
begging
anth
meh
##ombs
stole
##ckon
##ooks
greatly
rely
reckon
kiddo
prices
blown
tender
una
happiest
permit
builder
honors
boost
paths
devoted
scarf
vocals
rpgs
sunflower
patterson
adjust
wilderness
recognize
victim
evacu
registered
31
ace
kool
mak
pace
pour
via
##mat
##rome
##long
tha
haun
sole
stood
realy
##unner
##urge
greg
readin
cater
heres
##ibl
elses
glob
crashed
beloved
weirdest
standard
burnt
burning
endless
yeh
specialist
settling
winds
goof
wheeler
venice
mysterious
splurge
frag
reports
interaction
cowboys
ps4
threatening
concerned
november
remodeling
royal
bums
josh
kate
lack
##sup
##cs
##aru
mellow
stub
chris
someplace
frog
wassup
spont
soups
goth
drib
roots
backp
feline
hairless
phd
tyler
##berries
idi
paycheck
browns
rained
donated
subaru
filmed
incident
competing
reply
regard
poorly
supporting
discounts
processed
drew
pillage
kenny
satisfy
aggressive
reptiles
helmet
cinema
intimidated
gazing
3d
eaves
mcc
pope
rit
sust
sill
tinder
vine
##away
##his
anna
memp
##lection
reaction
chad
partake
bruce
needy
sweep
confl
tonite
blueberry
lem
##uffle
theirs
strings
rider
stark
mcg
freight
##lock
smokey
##backs
admiring
poster
facts
angels
scenic
mansions
drying
latin
cherries
deserves
dreary
volcano
claim
riverside
separate
scandal
thirsty
##ickens
eavesdrop
sustain
memphis
conflict
bore
eb
jk
oath
oats
pjs
tops
amd
##oom
##icting
##cho
stiff
tires
upgra
tees
switzer
gramm
listener
longest
heros
wonderfully
exercises
seahawks
writers
tourname
spaniel
trusting
reminded
kingdom
fireman
explos
##ritis
bearded
tempt
duct
connecting
translating
pedal
materials
blew
vitamins
timberlike
individuals
tubac
bloated
neurotic
exhib
platform
beverages
arthritis
steady
switzerland
5k
gim
mau
pt
ree
##mill
##log
##elle
##bled
##fires
##erving
##orp
##arison
socially
offe
staff
heated
chills
ohhh
sudd
enlist
therefore
rebel
##ula
drown
comparison
whoever
fished
flights
paraly
##iped
milking
minded
brad
smartphones
wildfires
stronger
operate
typo
sweethearts
farther
entirely
##playing
illiter
skunks
ferrets
germs
felines
dews
conventions
bounce
ewww
soundtrack
treadmill
sudden
illiterate
brie
eric
gap
jared
nj
taker
vist
##xious
thug
tommy
lily
stunts
tied
outlook
prepping
brats
##asters
gump
buses
chemo
uni
basics
##phone
appeal
weekdays
bio
snoop
monsters
pole
respon
triple
##quit
##noxious
perfectionist
emt
patr
technological
obnoxious
omniv
parenting
typos
ringing
pulled
responsible
sentence
ignored
machines
dreadful
mentor
lucrative
appearance
acquired
melody
abandon
simpsons
ptsd
response
omnivore
47
gpa
ipa
mick
pix
sed
vv
wat
wink
##iary
##hy
##wish
youtub
toll
##esh
failed
shad
##outs
abst
alps
outer
##ented
tends
troy
swamp
drift
##mpunk
nightwish
quilt
skins
restore
mighty
chats
chatted
balloon
eachother
added
exception
magicians
parrots
annoys
flaw
promote
operation
decorated
hippo
denaro
pandora
breathtaking
scratched
duo
newspapers
ladder
scarves
cheeses
effective
steampunk
behavioral
academic
heels
optimistic
youtuber
hoo
laps
rink
rud
rashed
tester
wander
##atically
##orow
##orating
##sta
mold
ash
##ifi
brb
seemed
pew
hobbit
##ationally
drow
shopaholic
scifi
reduce
rocky
freeing
freely
poll
genes
creamer
internationally
prized
smokes
##pected
feeds
depend
channels
journey
athletics
corvettes
audio
##ramax
epic
electricity
duramax
translate
mutineers
vehicles
flooded
gangsta
automotive
bffs
paranoid
aldi
cramps
attached
manicures
obligated
individual
associates
replaced
tourists
sumba
tommorow
unexpected
compliment
phobia
fid
fict
kong
mens
rack
wool
wound
##wis
##reen
bend
react
mos
coins
##anted
themes
click
##assion
interf
grapes
parale
phew
curvy
biologist
perman
nurs
seren
pastas
ridden
watermel
##coe
sled
competed
photographed
climate
ranked
zoom
roscoe
##dale
obvious
envious
treatment
##aaa
schedul
uncles
inspirational
ninja
jenn
gatherings
speller
belongs
13th
rollerblade
periods
litter
properly
unpacking
wrapped
aldis
sweaty
dumped
corgi
pinto
overeat
namaste
outrageous
haunted
paralegal
60s
75
aar
brill
eld
munch
moose
tink
tries
##mers
##nge
##tom
##cal
##wa
##pea
forth
##omore
stands
##alogue
ohhhh
partial
##ished
enlight
##entious
tragic
fishin
sailing
quir
leased
sweetest
##ggy
##plets
triplets
warcraft
airport
priest
primar
repet
columb
armadill
signatures
forests
boutique
stockp
bathing
debating
sighted
oooo
pretentious
continues
expression
healed
scarlet
shakespea
whittle
snuggles
hallmark
adjusting
progress
crocodile
neckl
sparky
sophomore
primarily
armadillo
shakespeare
59
cries
fal
guts
##aison
##nut
##lift
##tor
##bid
##inations
thread
liaison
ami
ancient
megan
chit
chicks
allot
lotto
awards
schooled
manual
margar
intake
##rene
dipl
crappy
recre
recite
restrict
realtor
rapping
charco
pitcher
tourney
zoos
regional
experienced
disneyland
rewards
bosses
psychos
shooter
lasik
includes
tails
mondays
weapon
borderline
grayce
coordination
arrog
ignoring
peaches
performed
witness
mentally
procedures
steam
assignment
granddaughter
sodas
attempt
tragedy
pocket
enlisted
diploma
charcoal
bich
jr
kud
nest
pee
wil
##uar
##uge
##rane
##bab
thigh
##errane
amanda
alarm
cans
canv
##cking
rex
newton
graham
##agers
##aping
adding
quil
philly
bonding
bodies
biker
metro
perch
desired
horri
horiz
colds
##ordan
##ailed
camry
policy
braz
freshmen
dynam
roads
bullied
##attered
disappeared
britt
pancake
mediterrane
duke
thrilled
debts
palace
venus
beneficial
uncommon
deserved
hidden
gangster
chopped
legend
estee
proofreading
influenced
mitten
omelettes
audiob
bargains
##lasses
trivia
bichon
kudos
mediterranean
cm
cly
cried
gi
hed
icing
meas
ren
wig
##master
##oly
##not
##ded
##was
##atile
whine
inn
beverage
canoe
##cel
outs
##allel
##aborate
carp
comprom
reliable
safer
pains
elaborate
parallel
teased
fanboy
reser
steakhouse
cuts
dishwas
##hahahaha
juicing
deter
deny
noneth
bathe
olives
strive
versatile
accents
semis
battles
wednesdays
consists
craziest
asterix
inferior
victims
global
stubborn
dishwasher
nonetheless
cpa
hort
kr
kart
linc
pou
sip
tul
##oha
##nn
##del
##inn
##inated
aloha
noon
##andra
reh
##oln
seque
lifelong
intimate
grumpy
redne
crave
passa
yogurt
clever
treated
majestic
consume
acara
catches
sorting
patri
hamster
policeman
yodel
turk
##roof
mixes
collage
taxed
silence
cellphone
grabbing
healing
gentleman
seventies
##hawk
aspects
cemetery
pissed
bulk
spontaneous
ebay
lincoln
6ft
bah
cert
fps
gator
lg
naked
peep
ron
ruth
##aign
##ella
##person
##esha
##onoun
##stit
##rage
abou
chore
washer
enem
##uline
pronoun
deck
courage
listing
##acular
ownership
smur
scra
reds
sneeze
calz
hunted
businessman
ponds
watering
population
yumi
slaughter
submit
substit
##ieties
follows
shrimps
jammin
terriers
campaign
angela
privately
recommendations
reaches
reached
deserts
stepped
illness
loaded
nanny
doodle
eyebrows
hygiene
seventy
harvesting
masculine
received
spectacular
flew
dwight
paralyzed
enemies
90s
bor
erot
ii
oat
pins
wuss
##zart
##uana
##robe
##iques
##des
##york
##atar
isn
##itt
##etnam
##utic
forte
mozart
coca
##obic
getaway
funn
##ament
##iffe
tracks
carri
newyork
marij
wishes
runners
unlo
scored
scobby
parade
rocker
winners
imperson
madden
belive
pointer
indul
shorts
vietnam
geo
##unks
20th
incorp
fox
##apeutic
papa
michelle
avatar
confusion
johns
messages
psychic
therapeutic
heav
##ifications
funds
empan
thrilling
devil
heals
tort
wisely
contests
##cutive
according
wardrobe
abstract
marijuana
jesse
loooo
mim
nar
oo
sights
vuit
yap
##zes
##gary
##cent
##hoo
##wear
##power
thail
##llie
##standing
inqu
##isure
##leys
stil
hells
workplace
mocha
willie
orc
##ulate
buried
overc
overly
##ibilities
flea
parmes
prove
leisure
downside
cranky
below
##gger
sonic
seconds
trilog
slaver
gem
incoming
dylan
entail
tales
annually
dishon
package
bumble
details
leading
collea
delivering
advertise
bottom
equal
kisses
##ports
responsibilities
advance
participated
concentration
satisfied
nightmares
chirp
reread
precise
gimme
drowning
mosquit
watermelon
brazil
thailand
parmesan
aid
aaa
cna
ego
gators
lent
rangers
vw
vices
wpm
##uase
##yn
##kien
##bust
ism
##ashing
shining
cany
##thm
##terest
dean
twitch
momma
becuase
takeout
overall
scores
drawn
somethings
flun
underground
housema
curren
passes
morgue
lewis
server
serves
##bro
headphones
resist
waterp
potty
##coats
raincoats
birthplace
skipped
addicting
keith
marketer
worthy
creeks
invested
microbi
reflection
scratching
winnings
pinterest
mutts
alpaca
scrubway
encourages
achievement
berries
effects
conventional
flexibility
rhythm
assigned
judgemental
tolkien
counseling
sahm
shadow
housemaid
40s
buck
bour
bombs
cus
caps
dart
dickens
etern
jere
nt
nina
sides
wired
##umed
##dinary
##oustic
##atible
whoop
##owing
anore
##rika
##una
goin
##ctive
daylight
revel
knight
ordinary
props
##ablish
##abby
carol
seiber
bru
okra
singles
bush
offic
compatible
grid
##izzy
canned
movement
applic
calf
calgon
monthly
charley
acoustic
elev
airlines
experiments
terrify
organiz
mixing
obama
physics
pilots
occasional
##odes
surviving
sexual
pathetic
mistakes
purples
temperature
spaceship
pharmacy
violet
peachy
establish
hitchhike
frightening
infant
plotting
arrested
overwhelmed
maui
interfere
anorex
96
busted
cough
cau
dit
hans
kite
lusting
ove
##mith
##names
##lave
##cos
##put
##puff
##pro
##pira
##jun
##vable
##bes
##bies
##isket
stove
stitch
shaped
alice
##teries
##oment
carn
seeking
twirl
gravy
hopeful
##amese
roar
unset
##tenance
downs
##easant
describ
describe
joan
leftovers
volunteered
cajun
conspira
hopping
maintenance
tasted
acura
larry
designers
neighbour
regrets
siamese
urs
homies
springer
tara
enviroment
nonpro
surprises
21st
corny
nicknames
bonnie
susan
bottles
verb
intend
identify
savvy
chopping
sausages
fools
troopers
korea
insect
treasure
representative
sculpture
sofa
tickle
cemeteries
##casian
praise
increase
enslave
moderation
psychoanalyze
lagged
bikini
nursery
eldest
repetitive
necklace
mittens
caucasian
enslaved
54
fles
filling
icon
rasp
sould
sab
tuck
##old
##nights
##lican
##creen
##ingles
topping
liver
##stin
init
##chup
forces
worl
sten
##rior
##rial
##rimin
##unes
##rastin
nemo
##cepting
##illas
frise
knot
clips
##ulated
broom
harold
overnights
##redict
phase
##ublican
glued
calc
jock
##while
charming
polishing
warrior
accepting
checkers
fold
wonton
address
republican
fattening
napping
18th
irrit
arches
circuit
tutorial
luke
erra
distracting
lounge
discovering
procrastin
hilton
repairing
fiancee
11th
correctly
homemaker
encouraged
ketchup
inventory
ignore
notebook
unpredict
horrors
distribute
patty
ribey
yankee
championship
temptation
recreational
unpredictable
ribeye
4r
85
ally
bunk
diction
jal
lt
mrs
nite
pine
sas
tam
vice
##ault
##ga
##emy
##bird
##eries
##atice
doe
whip
##sth
##char
beg
##asy
hiph
greasy
partly
outta
enemy
##allow
##amorous
pratice
##ieval
dept
demon
hears
coloring
complex
released
dialogue
saver
grader
cracked
boil
useless
curb
surve
wonderland
glaz
glamorous
supervisor
medieval
milan
milena
rave
concern
eyel
babe
##rodu
##quing
norway
insist
pickling
contrib
##tale
attacked
midter
snows
affair
shared
affordable
##umbing
reasonable
electr
homie
researcher
breeder
fuzzy
develope
washed
alternate
wolf
documents
exists
fairytale
awareness
pencils
ingredient
attachment
tolerate
waht
suede
rudol
aaron
canvas
esteem
4runner
jalap
hiphop
aa
au
dunk
ja
jus
rational
sack
vic
##rum
##car
##corder
##fers
##ero
##erve
isol
##onies
##onne
anton
##sem
##opes
assem
partially
funk
##inem
musica
prey
prefers
catal
betty
marc
acted
whys
hermit
##iche
dramatic
flames
##issy
hotline
joes
superb
##actic
camcorder
gladly
cleaners
picks
slots
geese
techie
humus
eminem
quietly
meantime
voiceover
sanity
irvine
##ontz
shoots
decorations
billie
lifts
solvent
fascination
agrees
##oooooooo
spiderman
acceptance
koontz
flavour
wasted
multitas
switched
homeschooling
witches
seventeen
venture
undec
lingu
cliffs
spectrum
energized
slipped
nineties
pollution
peeps
incorporate
antonio
undecided
ced
jordan
mm
rese
tame
tuit
vot
wax
##meal
##rant
##rink
##hey
##ounder
thor
##stakes
##eness
##uncture
mohawk
cokes
canines
greater
##estrian
##imo
previous
watchin
##ablo
select
blade
##osaur
shoulder
hearty
##umpt
tro
agile
rover
rocket
feature
buzz
mustard
scars
fluff
flounder
teasing
bien
restroom
##upuncture
disl
crust
##pens
dinosaur
courts
##roll
weirdly
polka
socialization
slices
honored
burt
acupuncture
election
yell
towns
simmer
robotic
coaster
grounds
generations
televs
strongest
landed
portable
racket
deniers
oui
furious
entertained
digest
whisper
tempor
earthy
balding
fifi
teenagers
gumbo
equestrian
varieties
bothering
devast
devils
juggling
hershey
membership
daniel
autobiography
triathlon
espn
accessories
sculpting
pennywise
tornado
rerun
mediums
automobiles
mazda
backpack
sweepstakes
brilliant
false
tulips
oatmeal
carribean
voting
dinosaurs
televsion
82
avert
bern
cord
fee
fiances
ima
jace
pm
tango
zu
##nch
##rust
##ruck
##laren
##vit
##fol
##inth
dot
amounts
soaps
whatnot
stool
stair
hives
pluck
chest
altit
cole
asl
timeless
tequ
##osmith
oldie
twister
conqu
african
petsitter
hairst
badass
leo
superficial
professions
##plays
resale
cleans
stresses
braid
builds
bury
humps
##version
afternoons
salesperson
##annah
patio
quitting
posters
portfol
raced
presents
privile
toddlers
40th
reflect
skittle
offering
provider
rounded
duties
savannah
participant
wicca
miniature
ucla
vinyls
androids
stretching
woohoo
cramped
capable
relocate
spinach
joseph
priorities
sensitive
intellectual
sacri
bambi
aerosmith
politicians
suddenly
giants
vuitton
stairmaster
altitudes
tequila
portfolio
cout
dried
hoot
irene
ky
loos
mural
pines
vibr
wats
zach
##tail
##cle
##vents
##change
stall
faint
##sell
shady
shock
##opoly
tools
##oba
frown
sup
prevents
##olism
##ieving
exchange
##abolism
carve
mane
beth
twos
compens
afar
spelled
cheaters
mustaches
dix
toned
##ibu
##lings
passport
metabolism
monopoly
terms
waterfall
brownie
handling
candle
holl
salesmen
kelly
chefs
worthwhile
techniques
observ
deathly
condol
straighten
samuel
kindergartners
danit
lobsters
combine
scholarships
frying
malibu
versions
trekking
gfs
screw
whistling
stares
couponing
trendy
portrait
banging
bouncing
maintaining
domestic
guests
encounter
objects
crawling
roger
stroll
unaware
regardless
lemons
innoc
7ft
bong
kris
kesha
oj
ric
yoy
##mine
##aid
##ollen
##yards
##wi
##pical
thus
toms
##llar
whale
##arly
howls
stated
heming
chrome
##aki
dayton
carries
dement
##ively
tromb
swollen
##nel
flick
recall
glue
appeared
meth
thrown
barrel
superior
hangs
riddle
charm
davis
causing
elements
hospitality
remot
seam
yellowstone
northeast
##burg
fictional
couches
heavens
dangerously
danish
crying
gymnastic
stellar
texts
latte
quartet
pyth
pension
celery
##iasm
fulfill
adventurer
frapp
tailgating
wrecked
hundreds
interviewed
settings
widowed
cockro
enthusiasm
jacksonville
graceland
harmless
compares
kiwi
corgis
gnarly
cassandra
stabbed
muffin
stereotypical
vineyards
explosions
arrogance
substitute
##busters
hemingway
dementia
trombone
cum
dual
gw
mp
ned
nug
ox
tart
tag
ust
wakes
##iac
##ell
##dka
##park
##ku
##vich
##front
##oul
##eror
myr
myth
##eable
##meat
andre
sober
##isy
##ustroph
stared
gogg
atom
nost
noisy
##ookie
asap
playful
outback
##olulu
orwell
arre
delish
manger
##cia
twitter
##osexual
friendship
femin
classified
rockst
rockies
##tends
glen
sounded
reals
cro
horrib
poke
trio
autoc
fourteen
instruction
congreg
honolulu
sixty
dresser
filing
foundation
sorted
smokers
transfer
vodka
bullies
homosexual
presently
auditions
industrial
renting
entertainer
investig
evano
cents
pierced
ooooh
scotland
pulling
stripes
leslie
tasking
suffering
galactia
fetish
recruiting
claustroph
miguel
asteria
facetime
defenders
yankees
rambo
automobile
length
evacuate
dribble
micky
reserved
redneck
unloving
microbiology
electrical
nugget
feminist
horribly
evanovich
claustrophobic
apt
bakes
dia
dudes
ema
echo
ff
hte
ick
jaw
lest
nause
nico
og
ramps
tid
vom
yolo
##oise
##nia
##tie
##bear
##bler
##inct
##rett
tore
stun
hew
goody
##raines
##artney
##omed
outstanding
##allops
##aks
##ulus
##abella
##ilit
maywe
aging
##neys
feist
bund
ads
overbear
scallops
highlight
pheasant
description
instant
salty
##ptu
surfs
scient
babes
##ints
italians
delay
poppa
##quoise
dawn
slower
tastier
followers
edible
pengu
annie
invading
positions
turquoise
breads
benz
blindness
helloooo
stocking
recording
cabinets
dearly
adams
equals
mopeds
destress
pittsburg
jessi
mutant
taht
immature
hazelnut
analyze
cobbler
jaguar
foolish
swimsuits
lucille
trashy
vocalist
migraines
priority
mccartney
ritzy
tournament
swamped
bahamas
calzones
orcish
mosquitoes
calculus
nicole
tidy
mayweather
overbearing
cider
erika
gin
garth
jig
kib
kath
obey
sessions
tent
##mary
##ody
##nuggets
##try
##grad
##iping
##iries
##wau
##jamas
##bon
##bee
##atos
doable
lib
##kee
whoops
itching
soy
mee
##asing
stake
fairies
mole
alas
##cker
anyhow
##ighty
sufficient
spas
awa
mango
twelf
truely
##athize
lawn
pollen
bitch
milwau
easiest
riders
almighty
potatos
##venue
mcnuggets
tougher
blondes
copies
freck
shares
pajamas
sorta
comicon
lighten
elections
postal
walt
possession
closing
bullet
layer
systems
graphics
struggled
thrills
similarities
upsetting
affects
paddleboard
sympathy
springs
tanks
berry
diamonds
cluttered
niagara
breezy
seashell
galleries
##yyyy
finalizing
kiki
egyptian
gelato
encountered
mamm
schedules
horton
tortillas
slavery
currency
bourbon
jeremy
initials
multitasking
twelfth
milwaukee
bise
dick
fert
hating
jed
jockey
kook
nu
nons
pity
saint
##rina
##iard
##eur
##ecutive
##cure
##hers
##date
##bor
##ffe
##friend
docks
invis
##isitive
stain
stables
shiat
chet
chos
alway
coffe
someones
fris
spike
##ortal
executive
brisket
seeker
##belie
hearts
prettier
drone
agric
unbelie
overdo
ques
skull
brewer
##nging
craig
freezing
walkers
lele
winery
realistic
disasters
stroke
101
togethers
crew
camaro
terror
pots
gyros
snowy
photographing
beaten
holes
laughed
politically
roomage
bobcat
fashions
smelled
obscure
decorator
2007
investor
smoothly
lounging
bubbly
qualification
devices
linda
scarry
critters
sunscreen
immortal
carnival
bertha
pineapples
360
patton
ragtime
intolerance
academia
rehearse
wyd
julie
upgrade
fictions
chiton
horizons
rehab
inquisitive
conspiracy
bisexual
nonsense
shiatzu
chosen
coffees
agricult
unbelievable
92
ain
bailed
ellen
ia
jb
kinet
mat
rach
wire
yarn
zip
##zi
##ios
##cest
##cup
##py